3E
3E
3F
2C
04
05
02
3F
3E
34
3B
3D
3D
35
3D
3E
3F
04
3F
3F
3D
04
3C
3F
01
01
3A
34
00
04
3B
05
3F
01
3C
35
00
01
3E
02
00
38
30
00
00
3F
3C
04
3A
3F
38
01
3F
09
3E
35
3D
3D
3D
3B
3F
3B
3A
02
3E
02
3A
36
3C
3F
3A
00
3F
39
2F
3D
05
3E
3F
04
3E
3F
3C
01
3D
08
00
33
02
3E
01
3F
00
00
3D
02
3E
03
3C
35
3D
3C
3A
02
01
3A
30
3D
04
3C
3D
01
3F
02
3C
00
3C
04
07
31
00
3D
00
00
3E
3E
3E
03
3E
02
3F
38
3D
3A
37
3F
3F
3D
32
3F
04
3F
00
03
00
03
3C
3F
3D
3F
0A
34
00
3B
3E
3D
00
3E
3B
01
3D
02
3F
32
3D
38
00
3B
3F
37
2F
3E
02
3F
00
08
00
03
3F
3D
3F
3D
05
34
3F
3E
01
3F
3F
3D
3D
00
3E
01
3F
3C
04
35
09
00
02
33
36
00
01
3F
35
04
00
3F
00
01
3A
3B
00
36
06
04
02
02
3E
04
35
00
3A
03
3B
3E
33
01
02
00
00
37
3D
01
01
37
39
01
3B
3A
05
08
03
3D
35
01
3E
3C
03
02
3C
37
3A
04
03
3E
3E
35
00
04
03
05
3C
3B
3B
3B
3F
01
01
00
3F
00
3C
3E
3A
05
39
3E
00
00
3D
3E
00
3E
3B
02
02
3F
37
38
3E
00
39
03
3F
38
31
02
00
3D
02
3F
3F
3D
36
3D
36
03
3F
37
34
3E
01
00
3B
3B
3F
3E
3F
01
3E
38
3C
3E
32
02
3C
3B
31
3F
3F
00
3E
00
3B
3C
00
3C
36
01
01
32
3B
3C
01
02
3E
3C
3A
3D
3F
02
3E
36
36
3E
3D
3F
3D
3E
37
00
39
01
3D
3F
3C
00
06
3C
36
00
04
34
3E
3B
3B
01
3B
3B
37
3C
3D
05
3E
38
3B
3A
36
3E
3B
3E
31
3C
3D
02
3E
02
3C
3D
01
3E
37
3F
07
3B
3D
3E
3C
01
3E
3D
39
3E
3C
01
3F
3D
3C
39
36
3D
37
3D
34
38
04
02
3C
02
3F
3F
3D
3E
32
3E
07
3C
3E
04
3D
03
3B
3B
3A
3D
3C
02
06
3C
3E
34
3E
3F
02
37
3B
3A
09
3D
38
05
38
3A
3D
02
36
3E
06
39
38
3D
3F
04
3A
3D
3C
00
3D
03
03
3E
35
36
00
02
3B
34
3E
3B
07
3F
3C
01
39
34
05
3D
01
3D
30
3A
3C
3E
3B
04
3F
36
38
34
04
02
39
39
3F
07
3F
06
00
3B
3D
37
3E
00
02
01
00
02
3D
3D
3B
02
37
3F
3B
3B
01
04
01
3D
3C
01
06
3E
35
3C
3E
00
3F
00
3F
3C
36
02
04
03
3F
01
03
3D
3A
3E
37
02
3C
3A
2D
01
3E
02
3B
37
38
02
02
00
3B
38
3C
3F
35
3E
3C
3F
34
03
01
3F
3A
01
3B
00
3D
3D
39
3F
00
37
39
3E
3D
00
3D
33
36
02
01
05
3A
37
36
3E
3E
3F
3C
01
31
01
3D
00
3B
02
01
01
3D
3A
39
3C
03
39
3C
3C
3C
00
3B
32
37
3C
3E
05
3B
36
3B
3B
3D
3F
3F
00
32
3D
04
03
3F
03
3C
3E
00
3D
37
3A
07
3C
3C
00
3B
03
3D
33
34
3E
3E
01
00
3A
3E
38
36
3D
3D
3E
35
3C
03
02
3D
03
3D
00
3D
3E
37
3C
06
01
39
01
3E
04
3E
39
36
3F
3E
00
07
3D
3F
31
3E
3F
06
36
39
3A
04
3C
39
05
01
3C
3B
01
39
3B
03
00
38
3A
3F
06
3F
3D
38
01
01
05
02
00
31
35
04
00
01
36
00
3E
09
3A
3D
3F
39
35
04
3F
03
38
32
3C
3B
3E
3F
02
3E
35
39
38
04
02
39
36
00
04
3B
04
02
3B
3E
3A
00
01
01
3E
00
02
00
3B
39
04
35
00
3A
39
3F
05
01
3C
3C
00
06
3D
39
3A
3D
3E
00
3A
3D
3D
36
01
00
02
3C
00
3F
3D
3B
39
3A
01
3A
3A
2E
01
3E
03
3B
34
39
3D
05
01
3A
3B
3A
3D
3A
3A
3C
3F
35
05
3F
01
37
00
00
02
3C
3A
36
3E
3F
3A
33
00
3E
01
3D
30
36
3E
02
06
39
37
37
3C
3C
3F
3C
3F
35
03
3E
00
39
00
03
01
3C
3A
35
3D
01
3B
38
3F
39
04
3C
2F
38
3D
3E
02
3B
3A
3D
39
3E
3E
3F
3E
34
3F
03
01
3C
3F
00
3C
3D
3A
39
3B
02
3F
3A
01
3C
05
3F
30
35
3C
3F
02
01
3A
02
3A
3B
3C
03
3D
38
3C
00
03
39
3E
3D
3D
3D
3C
3C
3B
03
3F
37
00
00
05
3D
36
38
3D
01
01
04
3C
3F
33
3D
3D
0A
38
3A
3C
04
3D
3A
02
3D
3B
3E
02
3B
39
3C
3E
39
39
3E
07
02
00
38
04
03
3F
3F
04
30
32
3D
3C
05
35
00
3D
04
3E
3F
01
37
39
04
3B
3F
36
31
3F
38
3D
3F
02
01
32
3B
36
05
03
38
37
3E
05
3C
02
3E
3C
00
3C
01
01
01
3C
03
03
02
3A
39
03
37
3D
3A
36
3F
04
00
39
3F
3E
05
3B
3A
3B
3D
3C
3D
3B
3D
3F
36
01
3B
05
3C
3F
00
3D
3E
3A
3A
00
3A
38
32
3F
00
04
39
33
3E
3F
07
3F
3D
3B
3A
3F
3A
39
3A
3E
37
03
3D
04
38
3D
02
3F
3E
3B
36
3D
3A
39
38
01
3C
01
3D
32
38
3F
06
02
3C
39
3A
3C
39
3C
39
3D
3A
01
3F
02
3A
00
00
00
3C
39
35
3D
00
39
36
03
3A
01
3C
35
37
3E
3E
00
3C
37
3D
3A
3D
3A
3C
3E
3A
3E
3F
02
3A
01
3E
3E
3C
3A
37
3F
3F
3C
3B
01
3A
04
3F
36
37
3B
3F
3F
3D
34
01
39
3A
38
3E
3E
36
3F
01
01
39
01
3D
3F
00
39
3A
3C
3F
3D
3C
3F
3D
06
3C
3B
3A
3E
01
01
3D
3F
00
35
39
39
0B
36
3F
3B
02
3F
3A
02
38
3D
3F
00
3B
38
36
3C
39
37
3D
06
01
3E
3E
02
04
3E
3D
04
32
35
39
3C
02
39
3F
3E
00
3E
3D
3E
36
3F
03
3F
3F
35
30
3A
3D
3B
3C
01
03
33
3D
38
07
04
3A
2F
39
01
03
02
39
3B
06
3F
01
02
3F
3E
06
00
04
3A
34
3F
35
06
3F
35
3B
02
3D
3A
02
01
08
3A
39
38
3A
01
3B
3D
00
3D
37
02
3F
04
37
00
00
3C
3E
37
37
3E
38
3C
34
3C
3F
02
39
38
02
03
08
3D
3D
38
38
01
3B
3E
3F
3A
39
03
3E
01
37
00
00
3F
3F
39
37
3C
39
3B
37
3F
3D
01
3E
33
02
3F
06
00
3F
38
3E
3B
3D
3B
3F
3D
3C
02
02
03
36
03
3F
00
3A
3A
35
3A
3D
3C
3A
01
3A
00
3C
3A
3D
3B
01
3D
3D
36
3F
3B
3D
3A
01
3C
39
00
01
03
37
00
3E
02
3C
3A
36
3C
3E
38
3E
3D
3A
03
3E
3A
3E
3C
3E
3D
3B
2C
02
3A
3E
36
02
3D
3A
00
03
02
3A
03
3E
03
3E
37
39
3C
3E
3A
3B
3E
3A
04
3D
02
00
3E
3E
00
3D
39
00
37
36
3A
04
3B
02
3F
02
02
3B
01
33
3B
01
3B
37
3C
3B
3B
37
36
3B
05
00
3E
00
06
03
3E
00
05
31
36
39
00
00
3A
01
3D
3F
3E
3E
02
37
3A
00
3B
02
3D
2F
3D
3A
33
01
3E
01
39
3D
37
0B
00
3A
31
37
00
07
01
3B
38
06
01
02
00
3B
37
07
3C
04
3C
39
3D
37
03
3A
32
3E
00
3F
3C
3E
02
07
34
3C
33
35
02
00
00
3E
37
3E
03
00
01
32
3D
01
3D
3E
30
38
3F
3E
01
2F
3A
02
04
00
3C
03
01
06
3A
3F
35
37
02
3C
00
01
38
00
04
04
00
34
00
01
3D
3F
36
38
3E
3B
3C
33
3D
02
05
3F
3C
03
3F
03
3D
3F
33
3B
3E
3B
3D
02
3C
00
03
05
00
33
05
3D
00
3B
3A
37
3D
3E
37
35
3D
01
04
01
3B
01
3D
3E
39
3E
32
3D
3C
38
3D
03
3A
01
02
05
00
33
0A
3C
00
3C
35
38
3F
00
38
33
3A
3F
01
00
3C
00
3F
3D
3D
3C
2F
04
3A
05
3B
05
3A
00
04
07
00
37
00
3C
01
3D
34
38
3D
3B
35
31
3E
00
02
3E
3C
3C
3F
3F
3D
3D
2F
01
3E
02
02
05
3A
04
01
08
3E
36
01
34
39
3A
39
3B
3E
38
3C
2E
3A
3E
04
3F
00
3E
00
01
28
3D
03
38
39
09
00
00
3C
03
00
00
3D
3F
06
38
3C
03
3B
06
3D
33
3C
37
31
3E
01
03
33
3D
3A
3F
3E
3A
3C
01
3C
01
04
3E
39
03
3D
04
3F
3E
33
06
38
00
3A
02
37
3E
28
3E
35
3F
3F
01
00
3B
00
05
3E
3B
3C
3C
02
00
3F
01
38
3D
3F
3B
3E
30
3B
04
02
3D
34
3E
04
3C
3B
35
3F
0A
02
3F
06
01
3D
01
00
3D
3C
3D
00
3B
01
03
38
00
3E
3B
3B
30
3E
05
39
3C
3C
3C
3E
3C
3A
3C
00
03
3F
3D
01
02
3A
02
02
01
3B
3C
3F
3F
02
02
3B
01
3E
39
3A
2D
01
3F
01
36
00
3D
3E
3E
32
39
3D
00
01
3E
00
01
3B
02
3B
3F
3A
3B
00
3E
03
06
3A
01
3E
3D
38
30
05
3E
05
3A
3E
3E
3F
00
37
3B
3E
3B
01
3E
00
00
3C
02
01
3C
30
01
3C
3D
01
0C
39
3C
3F
04
3A
34
36
00
06
3F
3E
3E
3F
3E
39
36
3E
3C
01
00
02
3F
3C
05
34
3F
38
07
3E
34
01
08
39
3D
3C
0C
3D
33
35
3B
3C
3D
07
3D
01
35
01
3E
35
3D
3D
02
02
00
3D
3B
36
02
08
3A
39
02
3F
3F
3A
3F
39
3A
03
03
39
3B
39
02
37
02
01
04
02
3D
36
3F
3C
3E
3D
0A
3D
3F
3C
37
02
3A
3C
00
39
38
05
3A
09
3C
00
3C
3C
3E
3C
39
3D
3C
3F
04
00
3D
04
3B
3B
02
3F
00
3E
3B
3B
36
03
39
34
04
37
3C
3A
3B
02
3E
00
00
3C
39
3F
3D
37
3D
39
00
3F
3B
00
38
00
04
00
3C
3B
3B
3C
3A
04
3E
33
3F
3C
3F
3A
3C
3E
00
00
03
3C
3D
3E
3C
3A
00
32
3D
3E
3D
04
3C
00
03
01
01
3F
3F
3D
39
01
3C
36
00
3A
3E
33
39
00
3E
01
00
3C
3E
3B
3D
3C
3E
3A
39
3C
01
02
38
02
00
02
00
3D
3F
3C
36
00
3C
34
3E
39
3D
3F
3E
00
3C
3F
3D
3D
02
3E
3D
3E
3C
3F
36
3D
02
03
34
04
01
00
3E
3D
00
3C
34
00
00
32
00
38
3D
02
01
01
3A
3B
3F
3B
3B
37
3E
3F
3C
02
37
3B
3F
00
31
03
04
05
3C
3B
00
3E
2A
00
3F
2D
3D
3A
3B
3E
3E
3F
3A
3F
02
3D
3E
01
3B
39
01
08
3B
3C
3D
03
3C
3F
03
04
3F
04
00
39
04
3C
00
3A
03
00
39
02
01
2F
2C
3D
02
02
3C
3C
3D
3D
3E
08
3B
3C
3F
00
3D
3D
00
00
01
39
01
3D
3C
01
3A
3A
04
3C
01
01
3A
04
3D
03
3D
3F
38
03
05
3F
3D
3E
04
3B
3E
03
38
3C
02
04
3C
3C
3D
38
38
03
37
35
3F
3C
3D
3B
3C
02
3F
01
3A
00
03
3F
3F
3A
00
39
00
3B
3F
09
38
01
01
3D
39
3A
3B
3C
37
06
38
37
3D
39
3E
3A
3B
00
02
3E
39
3E
01
05
3B
3A
00
3C
3C
3D
3B
11
38
02
00
3B
39
3C
3D
00
38
02
39
39
3E
39
3C
39
3B
00
03
3D
3B
00
02
02
00
3A
3F
3F
3D
3F
3B
14
39
03
00
3E
3C
3D
01
3D
37
00
36
39
3C
3A
3F
3C
3C
3E
01
3F
3B
3F
04
3F
00
3D
3D
3F
3B
00
3D
11
37
03
3E
3D
39
3E
03
3D
39
3C
3E
36
3F
3B
3D
3B
3E
01
3E
3D
3A
3D
3F
3B
00
3D
3F
3F
39
3B
3B
03
34
3F
00
3F
3B
3B
02
3B
2E
01
3D
2E
3E
3D
3C
3C
3F
01
3E
3F
00
3E
39
35
01
3C
3E
04
35
3F
39
02
3A
01
02
01
3B
3C
05
3A
3D
02
3C
3B
06
3D
03
07
02
00
36
00
3C
03
3B
3B
00
07
04
04
3F
3B
3D
3F
3A
39
3F
3D
02
3D
3F
39
3A
00
37
36
3D
38
3B
00
3D
00
01
3E
3E
39
3A
02
3D
02
3E
39
06
3B
02
03
3A
3D
03
00
3F
39
3C
3B
39
00
35
34
3C
3A
3D
3A
3D
02
06
02
3B
3F
01
00
3C
3D
00
3E
03
00
01
0C
3A
04
3E
3A
39
38
3C
01
38
04
33
35
3A
39
3F
3A
3B
02
08
01
3D
3E
01
05
3C
3A
3D
00
05
3D
39
11
39
04
3E
34
35
3A
3F
00
38
3F
33
3B
39
3E
3E
38
3E
04
07
03
3F
04
03
3E
3E
3A
3E
02
01
00
36
12
39
04
3D
36
3A
3C
03
00
39
3E
34
3B
37
3B
00
3B
3D
02
05
01
3E
00
08
3E
01
37
3B
3C
3E
3E
39
0F
3A
02
3E
35
35
3F
04
01
38
3C
3B
35
3C
3A
3A
3D
00
03
3F
00
3C
3E
01
3B
01
3A
3E
3B
3E
3E
3A
06
37
3F
00
3B
39
3C
01
37
30
3E
3D
31
3E
3D
3A
00
03
01
3D
3E
02
3E
01
34
00
3A
3F
04
3C
3D
35
02
3C
00
02
3F
3A
3A
01
38
38
03
3A
3C
03
02
01
07
02
02
3D
3D
00
3F
3C
37
00
01
04
05
3B
3E
00
00
3E
39
3F
02
01
34
3B
3A
3D
3E
34
37
00
37
3D
3E
01
04
06
3F
01
39
39
02
3C
08
00
3B
05
3F
05
07
3E
3D
00
38
3D
3A
3C
04
3D
3D
32
38
3A
36
3B
38
02
04
0F
02
01
3E
02
09
3B
00
3B
3A
06
01
00
0A
3D
02
3D
34
36
32
3C
03
38
3D
32
37
3B
37
03
3A
3D
04
0F
03
02
3A
3E
04
38
3C
3B
3F
0A
3C
3C
0E
3D
03
3F
2B
37
38
00
02
39
3C
33
3B
38
39
03
35
3E
06
0F
05
06
00
05
01
39
36
3E
01
06
3A
39
11
3C
05
00
2B
37
39
02
05
3B
36
36
39
38
3B
3E
38
3F
04
0D
04
06
3F
09
3C
3A
32
3D
3B
3E
3B
39
0C
3B
02
3D
32
34
3B
03
02
3A
37
3A
37
3C
3D
38
3B
04
04
05
03
06
3C
09
00
3C
34
3C
39
3F
3D
39
07
39
00
3E
38
38
3A
3D
3C
39
3D
3D
34
39
3D
3B
02
05
04
01
02
03
3B
04
38
3A
3A
3F
04
3D
00
3D
04
00
3E
02
38
3A
37
3C
3A
37
02
38
3E
01
03
01
0B
01
03
3C
3C
00
3A
02
3A
02
03
02
05
3E
3F
01
3E
3D
38
3C
37
00
35
36
37
3F
3D
36
37
01
36
04
3B
05
05
05
00
01
36
3B
05
38
08
38
39
04
38
04
03
3E
3C
01
38
3B
3A
37
05
3E
3D
31
3B
3B
3C
3E
38
07
06
11
02
05
3B
03
06
37
02
37
37
08
3D
3C
06
3F
02
3C
34
38
36
3A
05
39
3E
31
3B
3B
3B
04
38
02
09
12
03
06
3C
01
01
31
3D
38
3E
0B
3A
3D
0A
3D
01
00
2C
3B
37
00
02
39
3E
36
3C
3C
39
03
35
01
08
11
05
0D
3A
02
3E
37
37
3D
00
08
39
36
0D
3E
00
3F
28
39
3A
3F
02
3C
39
3B
3D
3D
3F
3C
37
01
05
0E
05
0F
3A
07
00
35
30
3E
3C
01
3D
35
0A
3A
3E
3D
2F
39
3B
3E
03
3B
3A
3D
39
3D
01
3D
3D
08
04
08
03
0E
34
06
02
39
2D
3C
3C
02
3B
3A
03
3A
39
3B
36
3A
39
3B
3B
3B
3E
3E
37
32
01
3C
03
08
05
02
03
06
3A
06
36
39
2F
3F
04
02
3D
3E
05
3E
3B
3B
37
3A
35
34
3A
3B
01
37
3F
00
04
02
03
3F
04
3A
3C
3F
3A
02
37
3F
01
01
01
01
02
01
00
39
3A
3B
31
3E
3B
36
35
3D
39
3B
38
05
3B
0C
3B
07
04
04
02
05
38
3B
08
39
09
39
3B
03
3A
04
01
01
3F
3E
38
3C
3E
34
0A
3E
3B
32
3E
3A
01
03
37
08
06
0E
00
07
3F
0A
04
35
04
39
39
04
3D
39
04
3F
01
3A
38
3C
3A
38
04
3B
3E
37
3D
3A
02
05
37
03
09
0F
03
0C
3F
03
05
34
3F
37
00
07
3A
3C
09
3D
3D
00
2D
3D
3B
3B
03
3A
39
3D
3F
3C
05
02
36
04
09
10
05
15
39
06
00
31
3A
3D
02
04
3B
3A
0B
3A
39
01
2C
3C
3B
3B
01
3F
3B
3F
3F
3B
0A
00
37
07
05
0E
05
17
3A
0A
00
33
30
3D
3F
00
3D
39
07
3A
3E
3B
30
3B
3C
3C
03
3F
35
3E
01
3C
0C
3F
3C
02
04
06
04
11
3A
05
00
35
2E
3F
3B
04
3C
3B
3F
35
3D
38
3C
3C
3C
3C
3B
00
00
39
02
33
0C
00
00
04
04
3D
00
08
39
07
34
38
2D
3D
3F
06
01
02
03
03
04
37
39
3A
3A
3A
3C
00
3C
2E
00
3E
03
04
3E
00
3D
32
3A
00
38
04
3A
3F
03
3F
3B
3F
05
02
02
04
03
36
35
3F
3A
3E
33
3D
3C
3E
3E
3E
3F
06
3B
01
07
02
03
06
2F
37
06
3A
08
39
3B
39
2F
3E
3D
02
3C
3F
3B
39
3E
36
38
3C
36
3F
3B
02
38
02
3D
09
06
0B
02
0C
34
01
03
38
08
3B
38
3C
35
37
04
3E
3A
39
39
3A
3D
38
3C
3E
38
02
38
3E
3D
06
39
05
08
0D
05
11
2F
3E
03
31
04
3C
3E
03
35
3B
06
3C
38
39
33
3C
3C
39
3D
3D
3A
04
38
3D
01
02
39
05
09
0C
05
1A
2A
04
3E
28
38
3E
02
02
3C
01
05
39
3A
3B
32
00
3E
3B
3A
3F
38
04
39
3E
01
3F
3A
06
04
09
05
1A
33
06
3F
31
2E
3E
3F
01
02
3C
04
34
3E
37
3A
01
3E
39
39
3E
36
3E
04
01
3D
3F
3D
04
05
02
04
19
39
04
39
37
2C
3D
3B
04
02
3E
3F
2B
3E
35
37
3E
3E
3B
3C
00
35
3B
08
3A
3B
02
3A
03
04
3C
3F
06
38
05
04
3B
33
3F
3D
05
3F
3A
3C
3B
05
38
3A
38
3C
01
35
3F
3A
38
00
3F
38
0A
36
02
37
30
39
3A
3E
3F
3A
03
01
02
01
3E
01
00
3B
0B
03
01
39
3E
39
04
3F
3F
01
03
07
3B
38
08
3F
3A
00
02
3A
09
0A
3C
08
36
37
01
39
32
3F
01
39
3C
3F
3D
3E
3F
02
3A
3F
3A
03
02
3A
02
3D
3E
00
03
05
00
04
0E
04
3C
3C
39
33
33
3C
38
37
37
02
3E
3D
36
3C
3E
00
38
3E
3C
3F
31
01
3D
36
01
3E
02
07
02
05
14
3E
3C
02
38
32
32
05
3B
34
2E
06
3F
3C
38
01
3E
3F
3D
00
3B
3F
38
04
3E
3D
3E
3F
02
04
04
07
17
3F
3D
38
35
3A
37
06
3D
00
35
04
3B
3B
3F
02
3E
02
3B
3F
3E
3F
03
03
00
05
3D
3F
01
01
05
08
16
3D
01
3A
38
3C
3C
03
3F
3D
36
02
39
3E
3A
3F
3F
3F
3C
3F
03
39
3E
3D
03
00
3D
00
04
01
3F
00
12
09
01
38
3A
38
3F
00
05
3C
37
01
31
39
37
3D
3C
3F
00
3A
08
3C
3D
3E
39
39
06
01
00
01
3E
3D
04
03
00
3E
3E
38
3E
3C
07
01
36
3A
36
3A
3B
3A
00
00
3F
39
07
39
38
00
08
3B
09
3B
3B
32
38
35
35
07
3A
3C
3E
3D
3B
36
01
06
06
2B
07
03
03
04
3D
3C
3E
3C
31
3E
31
02
05
01
3C
37
3C
3A
3F
00
00
3D
3D
3C
3E
3D
3D
3D
3A
38
02
39
0D
09
3C
00
02
3E
3D
3C
37
3C
2D
00
3B
3D
3C
34
3C
3F
3C
02
3C
3C
3D
3B
3D
3B
01
3C
00
03
03
3F
0E
04
3D
3E
02
3E
3D
3E
39
3D
30
04
00
3A
3E
3F
3F
00
3E
00
3C
3D
3D
3F
3E
3A
3E
3B
3F
01
03
00
0D
05
3B
3F
00
3B
3C
3E
37
3B
30
07
3F
3B
3F
3F
3E
3F
3E
3E
3C
3C
3C
3C
3E
3A
3E
3F
3F
00
00
3F
10
04
3D
00
3F
3C
39
3E
34
3A
32
06
3E
3C
3C
3D
00
3F
3D
3F
3F
3C
3D
3B
3D
3A
3E
3E
3D
3E
3E
3F
13
03
3D
01
01
3D
3C
3E
33
3C
34
03
01
01
3E
35
3E
02
00
00
3F
3A
3F
3B
3B
3E
3D
01
3E
3C
3E
3D
0C
03
3F
3D
01
3F
3F
00
2D
3B
37
00
3E
01
3F
35
38
3E
3D
03
3E
38
00
3F
00
3C
3A
00
03
3B
00
3A
03
03
3F
3A
04
3E
3F
3E
3D
3F
3D
3F
3C
3F
03
3B
3E
08
3E
03
02
02
03
3C
01
3F
3A
3E
3D
04
3E
3F
3E
3F
01
3D
01
00
00
3D
39
3F
33
04
02
3E
3E
37
3E
37
3E
3F
01
00
3C
02
3E
3F
02
04
39
3B
3F
36
08
04
3D
3F
02
3F
3E
3D
39
3D
30
03
3E
3C
00
39
3C
3A
38
3F
01
03
3A
3F
00
01
3E
38
3D
02
37
02
0A
02
38
3C
00
3F
3F
3E
39
38
30
06
3E
3A
3B
3E
3D
3A
3A
00
01
06
3A
3F
3D
02
3D
38
3D
03
3D
03
0A
00
3C
00
01
02
3C
3B
38
36
31
06
3B
3B
3C
3E
3D
39
3D
00
3E
04
3B
3C
33
3F
3B
3C
3D
3F
3C
02
0C
00
3A
02
01
00
3A
3E
3A
37
34
06
3C
3D
3C
3E
00
3B
3B
3E
3E
02
3E
3B
39
3C
3C
3F
3D
01
3C
02
0E
01
38
3F
02
3E
37
3C
3B
31
36
06
01
3C
3B
39
3F
39
3D
3C
3F
00
3D
3B
01
3A
3B
01
3C
00
3B
3C
0C
03
39
02
00
3C
3B
3D
35
36
37
03
3F
3D
3A
39
3D
34
3E
00
3A
02
3B
3D
3D
36
3C
3E
3C
3F
38
3B
04
01
3F
3D
02
3F
3A
3B
3C
01
38
3C
05
3F
3F
3A
3E
3F
00
03
01
00
02
00
3C
2B
36
3B
3B
04
3A
33
3F
3F
3E
36
03
3C
01
3E
3E
3E
35
00
3F
01
3E
3C
3C
39
3D
3F
01
03
3C
3E
00
3F
3C
3F
3C
3C
3F
3F
07
08
39
3F
04
3F
01
3F
3F
3D
31
01
3C
3E
3D
3E
3A
3B
32
3B
02
05
3B
3F
00
01
3A
38
3D
01
33
3F
09
05
39
3D
02
3F
3E
3B
3E
3D
35
02
3C
39
00
01
3C
3A
32
3E
03
07
00
3D
37
01
3A
39
3A
05
37
00
08
02
3B
3F
03
01
3C
3A
3C
3A
37
05
3E
37
3F
01
39
37
35
3F
00
07
01
3D
2F
01
3B
3B
3B
04
3C
3F
0A
02
3C
00
03
01
39
3B
3D
3C
3A
06
3C
39
3D
00
3D
3A
38
3F
3D
06
01
3C
33
00
3B
3F
3B
03
3E
01
09
04
3A
00
03
01
38
3D
3E
30
38
05
00
3B
3D
3C
3D
38
3C
3C
3E
03
3E
38
3C
3B
3C
01
3C
00
3B
00
0A
06
39
01
02
3F
3C
3C
38
37
3A
02
3D
3E
3C
3E
39
36
3F
00
3C
01
39
3C
3F
3A
3E
3D
3E
3D
3A
00
01
03
3B
3D
01
3F
37
03
3E
3D
3C
3A
01
02
00
3B
3E
03
01
03
3F
3F
04
01
3E
34
3B
3C
3B
3F
39
3B
3E
00
3F
3D
00
01
05
3F
3F
39
36
3E
01
01
3D
3D
37
3A
3E
3E
3D
03
3A
3E
01
00
37
3E
3C
3B
3D
01
03
07
38
00
01
3C
05
3C
3D
3B
32
3B
3E
3F
3F
3F
3A
3B
31
3C
01
05
3F
3E
01
04
38
39
3B
04
32
3F
04
07
37
3E
02
02
01
3B
00
38
37
3F
3D
39
3F
04
39
3D
2E
3C
02
08
02
01
3B
00
34
3A
38
07
35
3F
05
06
3A
00
03
02
3E
38
3D
38
39
03
3C
34
3F
06
38
3D
32
3D
3F
06
05
01
31
02
3A
3E
3C
05
3A
3E
07
07
3C
01
04
01
3B
3B
3E
39
3A
05
3C
37
3D
02
3B
3C
37
3A
3F
07
03
3F
36
3E
3B
01
3D
01
3C
3E
05
06
3B
00
04
00
3A
3D
3D
2F
39
03
01
38
3E
3F
3D
38
3C
38
3C
04
3E
3B
39
3C
3E
00
3E
3E
38
3D
04
06
36
03
00
01
3D
00
3C
36
3A
3B
01
3B
3A
3A
37
3A
3F
3E
3C
03
3A
3F
00
36
3B
3D
3E
3A
34
00
00
02
3B
3E
3D
00
37
02
3F
3D
3E
37
3E
00
3F
3A
3D
00
3C
03
3E
00
05
3D
3F
34
3A
3A
3C
3D
39
3D
02
01
3E
3D
3F
03
06
01
3C
38
34
3F
03
02
3F
3F
39
34
3E
3D
3D
00
3B
3E
3E
3A
37
00
3A
3F
3B
3B
02
04
3B
01
03
3C
07
3C
3D
37
37
38
3D
02
00
01
37
3B
33
39
3D
03
3E
3E
3F
3E
3B
3A
3B
01
33
3C
02
05
38
01
00
3F
05
3C
3E
39
3A
3D
3C
3A
3E
06
34
3B
31
39
3E
04
01
01
3B
01
37
3C
38
04
35
3D
02
08
3C
01
02
02
03
3A
3E
3B
3C
01
3B
37
3D
09
32
3A
32
3A
3D
04
02
01
37
03
3B
02
3B
03
39
3C
03
08
3E
00
01
03
3F
3E
3E
34
3D
02
3D
39
3B
06
35
3B
36
36
3D
04
00
01
37
01
3C
05
3F
3F
3C
3D
02
07
3B
01
3F
02
3F
3C
3F
2F
3B
3F
01
3A
3C
01
36
38
3D
35
3B
04
3F
3C
3D
3D
3C
00
3F
3D
34
3E
3F
03
39
00
3E
01
3D
3E
3B
35
38
38
05
3C
3C
3E
37
3A
3D
3C
3D
04
3C
3F
02
39
38
3B
3E
39
33
3F
3B
02
3D
01
01
03
39
3F
3E
3F
3E
37
3C
3F
3D
3B
3D
00
37
01
3C
01
01
3B
00
34
3E
37
3B
3D
3C
3E
00
00
3E
3D
3F
01
02
02
3D
3B
34
3D
03
02
03
3D
35
31
00
3A
3B
3F
3C
3D
00
38
36
00
3B
00
3C
3E
3E
02
3C
00
03
3F
08
3D
3C
38
3B
3A
00
3E
3E
04
33
3A
35
39
3C
02
3C
3C
00
3A
39
3F
3E
3E
37
3D
3E
02
38
3C
3D
00
07
3D
3D
38
3F
3C
00
39
3D
08
32
38
2E
38
3B
01
3D
3C
3C
02
38
00
3A
3F
3A
3B
3D
04
3D
3C
00
05
06
3C
3C
39
3C
3D
00
37
3B
0A
30
38
32
35
39
01
3D
3C
38
03
37
03
3E
3E
3A
3A
3F
05
3E
3B
00
03
04
3D
3E
38
3D
3D
3F
38
3C
07
32
3A
36
34
39
00
3F
3E
3A
05
39
04
01
3C
3B
3B
3E
03
3B
3C
3F
3E
3E
3E
00
35
3B
3C
02
39
3C
03
33
36
3F
35
3B
01
3D
00
3F
00
3B
02
3F
3B
37
3F
3A
3F
38
3B
00
3F
3F
3F
3F
39
39
39
02
3A
3E
3C
39
3A
3C
3B
3C
02
3A
3F
03
38
38
3F
3E
3D
35
3D
3D
01
01
3E
02
02
3A
3D
3C
02
3E
3A
3D
3F
3C
01
3E
01
3A
01
3B
3D
00
3D
00
34
3C
3C
37
00
3C
03
00
3D
3C
3B
01
01
3D
05
3B
3C
39
3C
01
05
01
00
3B
35
3E
3B
3A
0A
3F
3E
3C
3D
3C
3C
3E
3F
39
38
3D
03
3F
00
3F
3E
03
3D
39
3C
38
3B
00
3F
3C
02
35
37
37
37
3A
0A
3C
39
3C
35
3D
3F
02
01
33
31
3B
01
3D
3F
01
02
03
3F
3C
38
3C
3B
00
3E
3D
04
37
33
34
37
38
0B
3A
3D
38
3F
39
3E
01
02
36
36
3B
01
3D
3C
00
03
03
00
3B
37
00
3C
01
3B
3D
05
37
35
34
35
34
0C
3A
3D
39
02
39
01
02
00
35
39
3B
02
3C
38
01
00
02
00
3B
38
38
3D
3F
3B
3C
04
38
39
35
35
35
0B
3B
3D
37
04
3A
01
03
3F
37
38
3C
01
3C
3A
01
00
00
04
3F
39
38
39
01
3E
3E
3F
38
39
3D
3A
37
0A
3C
3D
3D
03
3C
00
01
00
36
3F
3C
00
3E
3D
00
3E
3C
3F
3C
37
3D
38
3E
3F
3F
3E
39
3B
39
3E
37
0C
3C
39
00
3E
3B
01
3E
3F
37
37
3A
37
01
3D
01
07
39
04
3E
03
3A
3D
3B
01
3A
04
3F
00
32
01
3A
05
00
00
02
36
02
3D
01
00
3C
3B
39
3E
3C
36
01
3F
3D
01
3C
3E
3E
3B
01
00
3D
00
02
3F
34
00
3B
37
39
03
01
00
00
3F
02
02
38
3E
3F
00
3D
00
00
00
3B
3E
3D
02
00
00
3F
3B
3F
01
3E
3B
36
3A
3A
35
3C
01
03
39
3F
01
02
01
00
3A
3D
3E
3B
3F
00
03
3C
01
3F
03
01
3F
02
3E
3C
02
3C
3C
35
39
35
35
3B
3F
3F
3D
00
3E
01
05
3C
3A
3E
00
00
00
00
03
3C
00
3E
00
3F
3E
04
3F
3C
00
3E
3C
36
39
37
39
3A
3E
3F
3E
3D
00
3F
01
3D
3C
3F
01
3F
3E
3F
03
3D
02
3C
3F
3D
3D
03
3F
3C
3F
3F
3F
36
37
38
3C
39
3D
3F
3E
00
02
01
3D
3C
3D
3C
3F
3F
00
00
03
3C
03
3C
3D
3E
01
00
3C
3B
3D
00
3F
3B
3F
3A
35
3B
3F
01
01
02
03
3F
00
3E
3E
3D
3E
3B
00
03
3F
3B
04
3A
01
3F
03
03
3B
38
3F
02
3E
31
00
39
3B
3C
3C
02
3C
02
03
3D
3D
3F
04
3E
03
3D
03
3F
00
3E
06
37
3E
04
08
3B
3F
36
04
02
00
31
00
05
39
3D
3C
02
3E
01
3E
3E
3B
39
05
3D
3A
03
3B
3F
3F
3D
3A
00
3F
02
01
02
3C
00
3A
3B
01
01
02
03
3E
00
03
3F
01
3F
05
3A
01
02
3D
39
00
01
3F
00
3D
3A
3E
04
3C
06
01
3A
3E
01
37
39
3E
3E
3F
05
3F
03
02
3C
02
3B
3F
3C
02
01
3E
35
3C
3F
3D
3F
3A
3C
3E
04
3F
07
01
3B
3D
3E
3A
37
01
3E
02
05
3C
01
04
3C
03
3A
3E
3C
04
3D
3E
38
00
3F
3B
3F
3B
38
3F
04
3C
07
00
3E
3C
3E
3B
37
3E
3F
01
06
3C
03
04
3F
04
3D
3C
3E
04
3C
3D
39
01
3D
3D
3E
3E
35
3E
3F
3D
09
3F
3D
3B
3E
3A
37
01
3F
01
06
3B
00
01
3A
02
3A
3A
01
03
3C
01
3B
01
3F
3E
3E
3D
36
3E
3D
3A
07
3E
3E
3A
3F
3A
37
3E
3F
00
04
3E
00
01
3B
01
3C
3A
03
03
3F
3F
3C
00
00
3D
3E
3C
00
3C
3B
3B
04
00
38
3D
00
34
3B
03
3E
3F
01
3E
3F
3F
00
01
3C
38
01
03
00
3B
3F
3F
3F
3F
3D
3A
3B
3D
3C
39
3E
00
3F
00
02
36
3B
03
3E
01
03
38
3A
3F
3D
3F
00
3C
00
03
3F
3F
01
03
01
3E
00
3A
3E
3B
07
39
05
03
00
3F
01
3E
3B
3D
3F
3F
00
00
01
3E
3C
3F
3E
3A
3C
02
04
3C
3B
3B
3E
3C
3F
3B
3A
3D
05
3B
07
3E
00
3F
3F
3D
34
3E
3B
00
3F
3F
3A
38
3A
00
3A
3F
3C
05
3C
3D
3B
3E
3C
3A
03
3D
3D
3D
07
3C
09
00
02
3E
3C
3E
35
3F
3B
3E
00
3E
3A
37
3A
00
3C
00
3D
05
3D
3C
3A
3E
3D
3C
05
3D
39
3F
04
3E
0A
3E
03
3D
3E
3F
36
3F
3B
3D
3E
3C
3D
38
35
01
3F
3D
3E
03
3C
3C
3B
3F
3B
3D
08
3B
38
3E
04
3E
0A
3E
03
3D
3D
3E
38
3C
3F
3D
3E
3C
3B
3A
32
3F
3C
3E
3F
03
3C
3C
3D
3E
3C
3E
06
3C
39
3C
02
3A
07
3E
02
3D
3E
3E
36
3D
03
3E
3D
3C
3B
3B
34
3E
3C
3B
01
01
3F
3E
3F
3B
3E
3F
03
3A
3B
3D
3A
3A
04
3C
3D
3C
00
3F
38
3F
01
3C
3C
3B
3B
00
3C
3E
3B
3B
04
3F
3D
39
00
3E
3B
00
3D
3B
3B
3A
3E
3C
01
3B
3E
3D
3F
39
3B
01
3F
3D
00
3E
3E
00
3C
02
3D
3B
02
3E
3F
3C
02
00
00
3D
00
06
3E
3B
08
3D
03
00
3F
00
3E
3E
3B
3E
3E
01
01
01
3F
00
3B
3C
3F
00
3D
01
01
00
3B
3B
3E
3F
01
3D
3A
3F
08
3C
04
3D
00
3E
3C
3B
37
3F
38
3B
3E
3E
3B
35
3A
3D
3E
3E
3C
3F
3B
3C
3D
3C
3A
3A
05
3B
3A
3E
06
3B
06
3D
01
00
3B
00
35
00
3A
3C
3F
3D
39
39
39
3E
02
00
3B
03
3B
3A
3B
3C
3F
3E
07
3A
39
3F
06
3C
0B
3E
01
00
3A
3D
33
00
3C
3C
3C
3B
3B
39
37
00
04
01
3A
02
3A
37
3B
3C
3F
3F
08
39
38
00
06
3D
09
3F
00
3F
3B
01
37
3F
3E
3C
3D
3B
39
3C
36
3F
3F
00
3C
03
3A
38
3B
3D
3D
3E
08
3C
38
3E
03
3C
06
00
3F
3F
3D
3E
38
3F
3D
3D
3F
3E
39
3C
37
00
00
3F
3D
03
3A
3D
3C
3D
3C
3F
05
3B
3C
3B
3C
3B
05
3E
3D
3C
00
3E
3B
3E
3E
02
3E
3F
3B
3D
3B
02
3E
3E
3F
00
3B
3B
00
3D
3E
3E
3D
38
3F
39
3C
3C
03
3B
3D
3D
3D
3A
3C
00
3C
3E
01
3F
3E
02
3C
02
3D
3E
01
3D
3D
3C
00
3F
3F
00
3E
3F
3E
3B
08
3E
02
3E
00
3D
3D
3D
3B
3F
3E
00
00
03
3E
3E
3B
3A
01
00
3D
00
3F
3D
3C
3B
3E
3F
02
3E
3C
3E
06
3D
02
3E
3F
3F
3E
3D
3C
00
36
3B
3E
00
3B
35
3C
3C
01
39
3C
3F
3A
3D
3D
3B
3B
3B
07
3D
3C
01
05
3D
03
3D
01
02
3A
3E
35
00
37
37
3E
3E
35
39
3B
3C
04
3E
39
01
3A
3B
3C
3A
3E
3E
07
3A
39
3F
05
3B
02
3E
02
02
37
00
35
01
3B
36
3D
3C
39
37
39
3C
00
3F
37
03
38
3B
3B
3A
01
04
09
3C
3A
00
05
3F
03
3F
3F
3F
3A
3E
37
00
3A
38
00
3E
39
3B
39
3F
3F
3F
39
03
3B
39
3B
3B
3D
01
08
3D
3A
3F
01
3E
01
00
3F
3F
3E
3C
3D
00
3E
3B
3E
3D
3B
3E
39
3E
3E
3E
3E
00
39
3B
3C
3C
3B
3B
08
3C
3D
3B
3C
3F
04
3F
3B
3D
3D
39
00
3E
3E
00
00
01
3C
3E
3C
3F
3E
00
3F
3F
39
3B
3F
3E
3D
00
02
3B
3E
3B
3F
3A
03
3B
00
3F
3E
3B
3C
00
01
3E
01
01
3D
02
3B
01
3D
3F
3C
3D
3D
3F
00
3E
3E
04
3E
01
00
3F
05
3E
01
3E
01
3E
3F
3B
39
3C
3C
00
00
04
3E
3D
3E
37
01
3F
3D
01
00
3D
3B
3C
3D
3D
02
3F
3E
3E
04
3E
00
3C
3D
3E
00
3E
3B
3E
35
3A
3F
02
3E
38
3B
3A
03
3D
3B
00
38
3D
3B
3C
3D
3A
05
3C
3D
02
04
3F
3F
3D
3F
00
3A
3F
37
00
34
37
3D
01
38
38
3B
3B
02
3D
3A
3F
39
3B
3B
3C
3F
3D
06
3C
3A
01
03
00
39
3E
02
02
39
00
35
00
34
34
3D
00
39
37
3C
3B
02
3D
39
01
3A
3D
3D
3A
3F
00
06
3D
3B
02
02
00
37
3D
00
3F
3D
00
38
01
39
36
3F
3E
39
3A
3B
3F
00
3E
3C
02
3A
3B
3C
3C
3F
3E
05
3D
3C
00
01
01
3A
3D
3F
00
3C
3E
3E
3F
3C
3B
00
00
3B
00
3B
00
3D
3D
3D
01
35
00
3C
3D
3D
3B
04
3E
3F
3F
3D
00
01
3D
3D
3D
3E
37
00
3D
3D
01
3F
3F
3D
3E
00
00
3E
3D
01
3F
39
3C
00
3B
3C
3F
01
3D
00
00
3F
3C
05
3D
01
3C
3F
38
3E
01
3F
00
01
03
00
3F
3C
00
3D
3D
00
39
3D
3D
01
3C
3F
3D
3F
01
3E
01
03
3E
00
3C
3E
3D
3E
3D
38
3B
3D
3E
00
02
3F
3C
3E
38
02
00
3B
3D
00
3F
00
38
3D
3E
3E
3D
3C
3E
03
3E
02
3D
3E
3C
3D
3E
39
3E
37
39
3D
01
3C
39
3B
37
04
00
3D
3D
3F
3D
3D
3C
3D
3C
00
3D
3A
01
02
3F
3A
3B
3E
3E
3D
3F
38
00
34
35
3B
00
3D
38
3C
38
02
00
3D
3D
3D
3C
3C
3E
3B
3F
03
3B
3E
00
01
00
32
3B
01
3F
3D
3F
33
01
34
34
3A
01
39
3B
3C
3B
02
00
3C
3F
3D
3E
3E
3C
00
00
03
3B
3E
01
00
03
33
3C
02
3C
3F
00
37
00
38
35
3B
01
39
3C
3B
3E
00
3D
3E
00
3D
3B
3F
3B
3F
3F
02
3C
3F
01
3F
01
3A
3B
3F
3A
3D
3E
3A
3E
3C
37
3E
01
39
3F
3A
00
3E
3D
3E
01
36
3F
3D
3A
3C
3B
3F
3E
02
00
3B
3F
01
3A
3B
39
3C
35
3D
3F
3E
3E
3E
01
3A
00
01
03
00
3E
3F
3C
39
3B
00
37
3B
3C
3E
3B
3F
01
3D
3C
04
39
00
3D
3C
3C
3C
3F
3C
3F
00
00
00
01
3D
3E
3E
00
3F
34
3F
38
3E
3A
00
3C
00
04
3C
3D
00
3E
02
3C
3F
02
00
3D
3F
3C
3E
3A
3E
01
01
3B
3A
3B
00
01
01
3B
01
02
3E
38
3E
3F
3F
00
3D
01
00
3F
3E
3D
3A
00
3D
00
3D
3D
37
37
3A
3F
00
3B
3B
37
00
3E
3C
3B
3A
01
3B
3E
3C
3E
00
3D
3A
3D
00
3F
38
3C
3D
3F
3F
00
3D
3F
36
37
3C
3E
3C
38
3C
39
03
01
3F
3E
3C
00
3E
3D
3D
3C
02
3F
3D
3C
3F
01
36
3D
3D
3E
3D
3E
3A
00
35
38
37
3B
3B
3A
03
3C
02
3F
3E
00
3A
00
3F
3E
00
3F
01
3C
00
3E
3F
00
35
3D
3E
3E
3E
00
3A
00
35
36
37
3B
38
3F
00
3F
02
3E
3C
00
39
01
3D
3B
3F
3D
02
3B
02
3F
3F
3D
3C
3D
3A
3D
3E
3E
3D
3F
3D
39
3B
39
3B
3F
3D
3E
00
3E
3D
3F
38
3D
02
3D
3F
3E
3E
3F
01
00
3D
03
3D
3C
3A
00
3B
39
3F
3E
3E
3F
3C
01
39
00
02
00
3F
3D
3D
3D
38
33
01
38
3D
00
01
3B
3D
3D
3C
02
01
38
3C
00
3B
3C
3F
3D
3A
02
01
3F
02
3F
3C
3E
3C
3B
01
00
3E
3B
06
3D
3F
04
3F
02
3F
3B
3F
3E
3D
3C
3C
3F
3B
01
01
3B
3C
00
39
39
3D
3C
3B
01
3F
02
00
3C
01
3A
01
3F
3C
3D
3F
3E
00
3C
03
01
3F
3B
3D
02
00
02
03
3D
3C
3D
39
39
04
3D
00
03
00
3E
02
39
3D
3F
3D
3F
03
3D
3E
3F
00
36
00
03
01
3B
3E
3D
3F
00
00
3D
37
3B
3C
38
3E
39
02
01
01
3E
01
3C
3F
3F
3F
00
02
3A
3D
3F
3F
38
3F
3F
02
3E
3D
3D
00
3F
3E
3E
36
3A
38
39
3E
39
01
3B
00
3F
3E
3B
3F
01
01
01
00
3E
3D
01
00
3B
3D
00
00
3C
3D
3E
3E
01
00
3E
35
3B
3A
38
3F
3B
02
3D
3E
3F
3D
3D
02
3E
03
01
01
3E
3C
3F
01
3C
3C
02
3E
3B
39
3F
3D
3E
00
3D
3A
3E
3D
38
3F
3E
01
3D
3E
3E
3C
3E
00
3E
0A
3F
3F
3E
00
00
3E
01
36
00
3F
3D
3D
3F
38
3E
01
3E
39
3F
3E
35
3F
3F
00
01
3F
3C
3B
39
3F
3A
04
04
3B
00
3D
01
03
04
3D
00
3D
3B
00
3D
3C
00
00
00
33
3F
3E
37
3E
3F
3F
02
3D
03
3B
3D
3C
3B
3E
01
01
3F
3E
00
3C
3D
03
3C
3A
3E
3C
08
01
01
37
3E
00
07
3E
01
00
00
3E
00
37
01
3C
00
3F
3F
39
36
3F
3A
00
3F
3F
3F
3A
34
38
3F
3F
0C
3E
0E
35
3F
3C
01
3D
3E
01
3F
3F
3F
3A
3C
39
3D
00
3D
39
3B
37
3C
02
3A
3E
00
38
38
3A
3E
03
0A
01
0F
35
3F
39
00
3C
3F
02
05
00
00
39
3A
37
3F
00
3F
35
38
3A
3F
00
3D
3A
01
39
3C
3A
3B
01
09
00
10
37
3F
3D
3F
3D
00
02
02
01
3F
38
38
36
3E
3E
3D
39
37
3C
01
3E
3F
39
3E
3B
3C
3C
3C
3F
0A
3F
10
3A
3F
3D
01
3B
01
02
01
3E
3F
3C
39
37
3F
3F
00
3C
38
39
00
00
00
39
02
3E
39
3B
3D
01
0C
00
11
33
3E
3D
02
3E
3D
00
3F
01
3D
3E
3D
3B
3D
3E
3D
3A
38
39
3C
00
04
3E
01
3C
01
3E
01
3C
08
01
08
35
3D
3D
3F
3E
3A
3E
38
00
3D
38
3D
3E
3B
3B
3F
3E
3A
3F
3B
03
03
3C
3A
3D
3E
3B
3F
3A
3C
00
36
3E
05
3E
08
00
3F
05
3F
3E
3A
3D
04
08
00
01
3B
00
01
3E
00
01
03
3A
00
3A
00
39
3C
00
02
00
02
36
04
39
3C
3C
01
39
01
3B
01
38
03
3C
3C
01
3A
3D
3C
3C
3F
00
00
3C
02
35
34
38
3E
00
0E
01
0B
35
01
32
3B
3B
3F
37
3D
3C
03
36
3D
3B
3A
37
38
3E
39
34
08
3E
3D
3C
3E
37
35
38
3D
04
0E
3F
0E
35
3E
2E
3B
3C
00
3E
3E
3E
04
35
38
38
3C
36
39
39
38
38
0A
3E
3F
3A
3D
39
36
3A
3C
04
0C
3E
10
33
3E
2F
3A
3A
3E
02
00
3D
05
36
3B
37
3A
3A
35
39
38
3B
09
3E
01
3B
3E
3A
32
3A
3C
04
0B
3D
0F
33
3F
30
3A
39
3E
3F
3D
3A
02
3A
3B
39
39
3B
37
3C
37
39
08
3E
3F
3A
02
3A
34
39
3E
02
0D
3C
0C
35
3E
35
3E
3C
00
01
39
3F
02
3C
3B
39
39
3B
3D
3B
38
39
05
3C
01
00
00
38
3C
3D
01
01
05
3E
03
36
3A
37
3B
3D
3B
04
38
3F
3D
3A
39
3B
3A
32
34
3D
37
3B
3E
3E
03
38
3B
3C
3E
00
3F
3F
3B
00
3A
3B
3C
33
3F
3F
3E
00
3F
3C
3E
3C
3D
02
3E
37
3A
3E
02
00
3A
00
01
3A
3B
39
3F
3A
3A
3D
01
3E
02
37
02
3C
3C
3C
3E
3C
3F
3D
3D
3B
02
3F
3D
3F
37
3F
3C
3B
00
01
3F
3F
00
36
33
3C
3E
01
0B
3F
0B
34
3E
34
37
3B
3E
36
3C
01
03
3F
3C
39
3A
38
38
3C
3A
35
11
3E
3C
3F
3B
3A
37
3C
3D
05
0C
3E
0D
36
3C
32
38
3E
3E
3B
3D
05
06
3C
39
36
3B
3C
38
3D
38
34
12
3D
02
3C
3B
3A
37
3D
3F
04
0B
3C
0E
37
3E
35
37
3C
3F
3E
3A
05
07
3E
3B
39
39
3D
36
3D
39
36
10
3B
03
3C
39
39
3A
3E
3D
04
0A
3C
0E
35
3B
31
38
3D
00
01
39
01
05
3E
3B
3D
39
3B
36
3C
3A
37
0F
3D
3F
3E
3F
38
3A
3C
3E
03
0B
3C
0A
35
3C
36
3C
01
3E
3F
39
03
02
3B
39
3B
3A
3F
3C
3A
3C
38
0D
3E
3C
00
3F
31
3A
3C
01
03
03
3B
06
37
3A
38
39
01
3C
01
38
01
3E
36
3B
3C
3C
3D
33
3A
33
3A
00
3F
05
3F
3B
3E
3C
3D
01
3C
3B
3B
3A
3A
3F
38
01
3E
3E
01
3F
3F
3E
3D
00
06
39
3C
39
3F
02
3F
39
3F
3F
38
3C
3B
3D
3A
3D
3D
01
3F
01
35
3F
3E
3A
3E
3C
3E
00
3F
3D
3A
3E
3E
3A
3E
38
3E
3E
3C
03
00
3E
3D
3A
39
3A
3E
3E
00
07
01
07
36
3C
34
36
3E
3C
3A
3A
02
07
3E
3C
3A
3B
3F
36
3D
3D
35
12
3F
3C
3D
3A
3C
39
01
3D
01
04
3D
09
39
39
32
35
3E
3C
3B
3B
06
07
3D
38
38
3D
02
35
3C
3A
34
13
3C
3F
3B
39
3C
3A
02
3D
00
04
3B
0C
37
38
30
36
3C
3B
3A
37
01
0A
3D
39
3A
3D
04
33
3E
3B
36
12
3D
3E
3D
3A
3B
3B
01
3E
01
03
00
0A
36
39
30
36
3F
3C
00
39
01
07
3B
39
3E
3C
03
36
3A
3B
37
11
01
3E
3E
3E
3A
3C
3C
00
03
07
3C
07
36
38
37
38
02
3A
3D
3C
01
02
38
36
3E
3E
04
3B
37
3B
39
10
00
3C
00
3D
30
3A
3B
02
00
01
38
06
35
3A
38
39
02
3C
01
3C
02
00
34
39
3B
3E
03
36
3A
32
3B
04
00
02
00
3A
3D
3F
00
00
3C
3D
3D
00
3A
3F
3E
3F
3F
3F
02
3D
00
00
3D
3F
05
3B
00
3C
3F
3E
3F
39
3F
3C
39
3D
3C
3B
3C
01
3E
3C
3D
3F
36
3C
3F
39
00
3E
3D
3F
3E
3A
3C
3F
3D
3B
3F
3F
3D
38
3E
03
3F
3F
3B
3C
3A
38
3F
3F
00
3C
00
03
33
38
37
36
00
3B
3B
3C
04
00
00
3E
39
3E
04
35
3C
3C
3A
12
3F
3C
3D
3C
3D
39
04
3F
3E
3B
3E
05
36
35
35
38
3E
39
3B
3C
08
06
3E
38
38
3D
03
35
39
3A
3B
13
3F
3A
3B
3B
3E
3F
03
01
3D
39
3F
07
37
38
33
36
3E
3B
3B
3B
05
07
3C
35
38
3F
05
34
3A
3B
3A
0F
3F
3A
3E
3A
3E
3A
02
3F
3E
3D
00
07
36
3A
35
35
3F
3A
3B
3C
06
06
3B
39
38
3C
05
34
39
3B
3A
0F
3F
3B
3E
3F
3D
39
3E
02
02
00
39
03
37
38
39
36
3F
37
3D
3E
05
02
38
38
39
00
04
3C
37
38
3B
10
3E
3B
01
3F
36
35
3B
04
3E
3E
3A
03
35
3A
3C
3A
00
3A
3D
3F
02
00
3A
3A
36
00
04
3F
3A
2E
3D
05
3F
3F
02
3A
3B
00
06
04
39
00
3C
3F
3C
00
04
00
3F
3F
01
3E
3F
01
3D
3E
03
3F
01
39
3D
3E
00
3D
00
00
36
3D
3F
00
3C
01
3C
3B
3D
3F
38
39
3E
39
3D
01
3D
3B
02
37
01
01
3D
3C
3B
02
3A
35
3F
05
00
3D
3C
3C
3A
39
3F
02
3F
36
3E
3F
37
39
3A
39
3C
01
39
3A
07
3C
3F
3D
3C
3A
02
36
3A
3D
3E
09
00
3B
3F
3B
3D
3C
02
03
3E
35
3E
02
39
36
35
38
3D
3F
3D
39
07
01
3E
3C
3B
3C
03
35
39
3A
3C
0B
00
3A
3C
3E
3D
3B
3E
03
00
34
3D
02
3C
37
36
37
3B
00
3A
3A
06
03
3E
3A
38
3D
04
34
3A
3B
3B
09
00
38
3D
3C
3C
3C
3D
00
00
36
3E
00
3B
3A
39
37
3D
00
3B
3B
07
01
3F
3E
3B
3E
04
37
39
3A
3D
07
3F
3A
3F
01
3E
3D
39
04
00
36
39
3E
39
38
3C
34
3D
3E
3D
3E
07
00
3D
3D
39
3D
03
3E
38
35
3B
07
3E
3A
01
3F
37
3A
3D
04
02
38
3C
3E
3A
39
3D
3A
3F
01
3A
3F
02
01
3B
3C
3D
01
01
00
3A
30
3C
01
00
3F
01
3E
39
3E
11
09
3C
3E
3A
3C
3C
3F
03
00
00
01
01
3C
3D
03
3F
00
04
05
3E
3D
39
3A
00
3D
00
3D
34
3B
3C
39
3C
3A
04
3E
00
00
3B
38
3D
3A
3A
3A
3D
3A
03
3B
3F
3E
3F
3B
3B
3F
3D
38
00
04
01
3D
3B
38
39
3B
02
3F
3E
3D
3F
3E
3B
3B
39
3A
33
3D
3A
38
05
3C
00
00
03
39
03
3B
3C
3F
3D
02
3F
3C
3E
3F
3C
3D
3E
03
3F
3D
3B
3F
3C
38
35
3B
33
3C
3B
39
05
3F
02
3E
01
3F
03
39
3C
3D
3C
02
3E
3F
3D
3C
3C
3F
3B
03
3E
39
3A
00
39
38
34
3A
36
3C
3C
3B
03
05
3F
3D
01
3E
02
3A
3C
3E
3D
01
3D
3F
3E
3C
3A
3F
39
03
3F
3D
3D
3C
3B
3C
3A
39
38
3B
3A
37
06
04
3E
3F
3E
3D
05
3E
3B
3E
00
3F
3D
3C
3F
3E
3C
3C
3E
04
3F
3E
3F
3B
3A
39
3C
3D
37
39
3A
00
07
04
3E
00
00
3D
05
3F
3A
3C
3C
02
3E
3E
3F
39
38
3A
02
3D
00
3C
38
3B
3C
38
3B
3D
38
3B
38
36
3F
3E
3D
3F
3B
3D
02
02
3A
36
00
3F
00
03
02
2E
3E
3D
0E
02
3C
05
3A
3A
3D
3C
0A
02
3B
3C
01
39
3C
03
3E
3E
01
02
3E
00
2A
3A
3F
33
3F
00
3F
34
38
3A
3B
39
02
3F
39
00
01
39
3B
3B
2E
39
3F
36
01
00
03
00
03
3A
3E
37
3C
00
02
00
02
02
3E
37
39
3E
3B
00
04
03
3F
00
00
36
37
3A
31
3F
3E
33
00
3F
01
02
08
3F
01
37
37
03
3D
3D
3E
01
3F
37
3C
3F
3F
00
02
05
3E
00
01
39
37
3A
2A
3C
3F
35
02
02
00
3F
05
01
02
39
3C
02
3E
3A
01
3F
3E
34
3C
01
3D
00
03
03
3D
00
01
3A
33
3B
32
3C
3F
3C
02
02
00
38
05
03
03
39
3C
03
3E
3C
00
01
3E
36
3A
03
39
01
3F
01
3F
3E
02
39
34
3B
38
39
3B
39
01
04
02
3C
03
02
00
3A
3B
04
3E
3A
02
00
3D
00
3A
3D
3B
03
01
01
3B
3D
01
35
3E
3D
33
37
3C
3B
02
06
01
02
3E
00
01
3E
3F
02
3F
3C
02
01
3D
3B
2E
02
3A
00
02
02
39
3E
01
34
38
00
3A
3F
3F
35
03
06
3E
04
3A
02
3F
3F
3E
00
3F
3D
01
04
03
2C
35
00
09
04
3D
06
33
3E
04
3F
05
05
38
3C
06
3D
3D
02
03
03
00
04
3E
3E
27
01
01
3D
3F
06
3C
3D
02
3F
3E
00
3B
3F
04
3D
04
3C
03
03
3D
05
00
3C
06
02
3B
3E
3B
07
3F
01
3E
3F
00
3C
00
3A
3A
3D
05
3D
3E
02
00
3C
3E
3D
0B
3F
3E
3C
3F
02
04
3D
01
01
3F
39
3F
09
00
01
3D
00
3A
3F
00
3B
39
3C
05
01
00
03
3F
3A
3E
3B
0D
01
3D
02
3D
01
00
3D
00
01
02
39
3D
08
3E
3F
3B
3E
3B
01
3D
3A
39
3F
03
02
3F
03
3D
3D
3E
3C
0D
3F
3D
00
3F
00
3F
00
00
00
02
3C
3C
06
3C
00
3A
3D
3C
02
3C
3A
37
3E
00
04
3E
04
3E
3C
3F
3B
0C
00
3D
02
3D
3F
3D
01
3F
3E
3C
3D
3D
06
3C
3F
3C
3E
3C
01
3D
3C
35
3C
3E
01
01
06
3E
3C
02
3E
0D
3E
3E
01
3F
01
01
01
3F
3F
37
3E
3E
07
3F
02
3F
3E
3D
3F
3F
3E
3C
3E
3A
02
01
08
3B
3F
04
3E
09
3F
01
3F
3E
3E
3A
3E
02
3D
3B
3C
02
02
3D
3C
01
38
00
3B
3B
3A
03
3A
3C
39
3F
3D
3A
3F
03
39
38
3C
04
02
01
3F
3C
3C
3E
3C
3E
3B
01
3E
01
02
3F
01
00
39
05
04
3A
3C
08
3F
3F
3D
3F
3F
03
3E
07
3C
00
00
3A
03
03
03
04
02
3A
3D
3D
01
01
3B
3F
3C
3E
3B
39
3A
3B
3E
04
3F
01
01
01
3A
3E
00
0E
3F
39
00
3E
00
39
3C
03
3D
3B
3C
3E
07
3C
3A
3F
3E
3C
3F
3A
38
3C
3E
05
02
04
00
01
3A
3E
01
10
00
38
3E
01
00
3A
3B
3D
3E
3B
3F
3D
06
39
38
3D
3A
3C
01
3C
37
3C
3E
03
07
04
01
01
3A
00
00
10
3F
38
3F
3F
3D
39
3C
35
3D
3B
3F
3E
05
39
37
3A
3A
3D
01
3B
33
3C
3C
03
07
04
01
01
39
3E
00
0F
3F
3B
3E
3E
3A
3C
3C
33
3B
3C
3F
3E
04
3B
37
3A
3B
3D
01
39
36
38
3C
03
00
03
03
01
39
02
3F
0E
3D
3D
00
00
3D
02
3B
39
39
3B
3D
3E
03
38
3D
3B
3C
3C
3F
38
38
39
3B
3E
00
01
06
3E
3A
01
3C
0B
3F
3F
01
00
3C
01
3E
00
3C
3C
3C
3D
00
3C
37
01
39
3E
3D
3A
00
3D
39
00
3C
03
3B
01
3C
3E
37
3A
04
3D
3F
03
3D
04
01
3E
3C
39
3A
01
3C
3D
00
3D
00
3D
3B
02
04
3B
3B
06
02
02
3F
3E
00
02
3D
03
3F
3D
3F
3F
02
3F
3F
05
3C
02
3E
3E
00
02
3D
3F
37
3D
3C
39
3A
3B
00
05
3F
02
00
03
3A
3B
3F
10
00
38
3B
3F
00
37
3A
3F
3B
3E
3D
3F
3E
3E
39
3F
3A
3C
02
3A
36
3C
01
05
01
07
3F
02
3B
3D
00
11
02
36
3C
00
3D
38
39
37
3C
01
00
3A
3F
3C
38
3E
39
3E
02
3C
36
3D
00
06
02
09
01
02
39
3C
3E
11
03
38
3B
3E
3A
37
3A
34
3C
02
01
37
00
3A
35
3C
37
3F
02
3B
34
3C
3E
06
03
05
02
02
38
3A
00
11
03
3A
39
3F
3A
38
3C
34
3C
02
02
39
3F
39
37
3A
39
3C
02
3C
36
39
00
02
03
02
03
3F
3A
02
3F
0E
3E
3E
3B
01
3B
3E
3C
36
3C
04
00
3A
3E
38
3B
39
3A
3E
3F
37
3A
3B
3D
3C
02
02
08
3F
3A
03
3D
08
00
3F
01
00
3B
3F
3F
01
00
3E
3F
3C
3F
39
3D
00
38
3E
3D
39
3E
3D
3C
3F
3F
04
3D
01
3C
3D
36
3B
00
3E
3E
02
3F
02
03
3E
00
3B
3C
01
39
3F
3C
00
3E
3E
3C
01
05
3F
3B
05
00
03
3F
3F
3F
01
3D
3E
3F
3D
3E
3D
03
01
3E
04
39
04
3F
00
00
00
3D
3F
38
3D
3B
3B
3D
3B
3D
04
00
03
3F
02
3C
3C
3D
0A
00
36
37
3F
3E
39
37
3E
3C
02
3A
3F
3B
00
3A
00
38
3D
03
39
38
3A
3F
04
3F
03
00
01
3C
3A
00
0D
00
37
37
00
3B
37
36
3A
39
04
3C
38
3A
3F
39
00
37
3F
04
3A
38
3C
00
04
3F
04
00
01
3A
3B
3F
0E
01
38
36
00
38
38
39
37
3C
03
3A
36
3B
3C
39
3F
35
3E
03
3C
35
3F
3F
03
3F
00
3F
3F
39
3B
00
0D
01
38
34
00
3B
37
3B
35
3C
02
3E
38
3E
3B
38
3B
37
3E
04
3C
37
3B
3E
3F
01
3F
03
00
3B
3E
3F
0B
3E
3F
37
01
3B
3C
3D
38
3F
01
3D
3B
3F
3E
39
3C
37
3D
00
38
39
3F
3A
3A
02
03
05
3F
39
02
3C
03
00
3F
3E
01
3D
3D
00
00
01
00
3E
3C
00
3D
3B
3F
3C
3C
3E
39
3B
3B
02
3F
3D
06
3B
02
3D
00
38
3B
00
3E
3F
01
00
3E
04
3D
03
3B
3C
3F
39
3E
3D
02
3E
3F
38
01
00
3E
3E
02
3D
02
3F
3E
01
3E
3D
35
3A
3E
3F
3D
04
00
3D
05
3A
05
3D
3E
00
3E
3A
3D
3A
3D
3C
3D
3E
3C
3D
02
3F
01
3F
01
39
3E
00
3F
3E
36
36
3E
3E
3A
37
3F
3E
07
3A
3F
3D
3E
3A
3F
37
00
01
3A
3C
3C
3E
03
00
3E
3C
00
3A
3E
02
05
00
36
34
3D
3D
38
39
3A
3B
08
3B
3C
3B
3F
39
00
33
3E
03
3B
3A
3B
3D
02
01
3A
3F
01
3B
3D
02
05
00
38
35
3A
3B
39
3A
35
3C
07
3B
36
3C
3E
38
00
35
3E
03
3A
38
3D
3F
01
02
39
3E
3E
3A
3D
03
07
00
36
33
3E
3B
37
3B
37
3F
04
3A
38
01
3F
38
3E
35
00
01
3C
38
3D
3E
00
02
3B
00
3E
39
00
00
03
3C
3B
37
3F
3C
3B
00
39
04
00
3F
3B
03
00
3B
01
38
3D
01
3C
34
01
3D
3C
3F
00
00
00
3A
01
3B
3B
3C
3F
3D
3E
3E
3C
00
04
04
00
00
3A
01
3C
3B
02
3B
3D
3B
3B
3C
3E
01
3F
3B
04
39
3E
3D
01
3C
3D
3D
3D
3F
00
02
03
02
00
04
3C
3F
3D
3C
3D
3C
02
3E
00
03
00
02
3D
3D
02
3E
00
3D
3A
02
3D
05
35
3B
3C
3B
3E
03
03
3C
01
3B
04
3D
3C
3E
3F
3C
3E
3A
3F
3B
3F
3F
00
3C
02
01
3E
00
01
39
39
3F
38
3E
35
36
3B
01
37
38
3E
3B
04
3E
3E
3B
3E
3D
3C
3A
3B
3F
3B
3A
3C
3E
01
00
37
3C
3F
3B
3D
3F
3E
00
36
34
3A
3E
3A
3C
3C
3B
08
3E
3C
3C
3C
38
3C
38
3D
02
3C
3B
39
3F
3F
3F
35
3C
3D
3C
3D
00
03
3F
38
33
38
3E
3D
3A
3D
3D
07
3B
39
3B
3B
37
3F
36
3E
3F
3D
3A
3B
01
3F
02
34
3E
3F
3A
3D
00
00
00
39
32
3A
3E
3A
38
3D
01
05
3B
3E
3F
3E
39
00
38
3E
00
3A
38
3F
3F
00
01
3A
3E
3E
36
3E
3E
3D
3F
3B
38
3D
00
3A
3E
3B
05
01
3F
3D
02
3D
3C
00
39
3A
3F
3C
38
02
3D
3E
3E
00
3A
3A
38
01
3D
39
3D
3F
3C
3B
00
3A
3E
04
05
03
01
3B
3C
3B
3B
00
36
00
3A
3C
3C
3F
3E
3F
3D
00
38
3A
3D
01
04
3A
3C
3E
3F
00
3F
38
02
01
01
3C
01
3B
37
3C
39
00
3A
00
3D
03
03
3E
3F
02
00
01
3B
3B
01
00
01
3B
3A
00
39
3B
01
03
37
01
3E
03
3F
03
37
00
3A
3E
3D
3C
3D
00
3D
02
3E
01
00
3B
3F
3F
3F
3B
3E
39
3E
38
37
3C
3F
3B
39
3D
3A
04
3E
3F
39
3E
3E
3B
3D
3E
3E
3F
39
00
3C
00
00
39
3E
00
3F
3D
3C
3B
00
38
39
3B
3A
3D
3E
3B
38
05
3E
3C
3B
3C
3E
3D
3A
3C
3F
3D
3E
3B
3E
3E
00
37
3F
3E
3D
3A
3F
3B
00
38
38
38
38
3C
3B
3E
3D
05
3D
3C
3B
39
3C
3E
3B
3D
00
3D
3B
3F
01
3F
3F
37
00
01
3E
3D
3F
3A
3F
37
36
39
34
3A
38
3C
04
04
01
3C
3A
3B
3E
3C
3A
3C
00
3F
3A
3E
00
00
3F
3C
3C
3C
3C
3F
00
3B
3D
3C
3A
3A
33
3D
3D
3D
03
04
04
3C
3D
3C
3C
3F
3D
3C
00
00
3A
03
3E
3F
01
3D
3E
3F
02
00
3D
3C
3E
3E
3C
38
3C
3B
3C
06
04
01
00
38
3B
3F
35
01
3F
00
3C
3C
3B
3F
3B
39
00
39
3B
3A
3F
3D
01
3C
3D
37
01
3E
3F
3B
01
03
02
3B
00
3A
3B
3D
34
0A
3E
3E
39
01
00
3D
00
03
01
00
3E
3F
03
3D
00
3F
3C
3F
3F
3B
3B
06
3B
00
01
3E
01
04
32
3E
00
3D
01
3E
3D
01
3C
04
3E
00
3E
3E
3E
3B
3F
3A
00
3E
3C
35
38
3B
3B
01
35
3E
06
02
3C
00
35
3E
01
3E
01
04
3C
3D
00
04
3B
3E
3E
01
3F
3F
3F
3F
3F
3D
3A
36
3C
37
3F
3F
3A
00
05
04
3B
3D
3A
3E
3F
3E
3F
04
3B
3D
3E
02
34
3D
3D
3F
3D
01
3C
3C
3E
3F
3C
3A
38
3A
39
01
3A
02
03
03
3D
3A
39
3A
00
3C
3F
03
00
3D
3D
02
38
3D
3E
3F
3C
01
3A
3C
00
3F
3C
36
35
37
38
3F
3D
00
02
01
3B
3B
38
3B
02
3C
3F
03
02
3D
3C
03
3A
3D
3C
3C
3D
3D
39
3B
3F
3D
3E
3B
3C
3A
3A
3F
02
3B
00
04
3C
3A
3A
3C
3F
01
00
03
3F
3F
00
00
3F
3A
3E
00
00
3F
3E
39
00
3C
3D
3D
3D
3B
33
3F
01
00
3F
3E
3B
3C
38
03
3D
3D
3E
3F
3E
02
00
00
01
00
3F
3E
02
39
04
3A
02
3D
04
31
00
39
03
01
3F
00
01
3A
3C
3C
3E
3C
3A
37
01
3F
00
3F
03
3F
37
3A
3F
3E
3D
3B
3E
05
02
00
00
00
03
3E
03
03
3D
00
3F
37
3D
05
3B
02
3D
05
38
3D
3E
01
3F
39
3B
3B
3A
3C
3C
01
34
01
36
3C
01
02
3A
3A
01
03
39
3A
3F
33
30
02
3C
03
3E
09
3E
3E
3B
01
00
3F
37
39
39
3B
3B
03
38
05
34
3C
05
00
3E
38
00
00
39
3E
3D
39
31
3C
3A
01
3F
3B
3F
3D
38
02
39
07
37
3A
36
3A
3D
3E
38
04
36
38
03
3D
3C
35
00
3D
3E
3F
3C
3C
37
39
38
01
3D
33
3D
3C
39
01
3C
09
39
3C
39
3B
3D
00
38
04
33
3A
02
3C
3B
36
3F
3A
3F
00
00
3B
3C
38
00
3F
3E
35
3F
00
3B
00
3E
08
3A
01
38
3B
3D
00
3F
02
31
3D
01
3F
3D
39
3C
3F
3F
3C
00
3A
01
39
05
00
01
36
3B
3C
3A
01
00
3D
3A
38
39
3C
3C
00
02
3D
39
02
3F
00
3E
3C
3A
3D
02
3A
03
00
00
3E
03
02
3A
3B
37
3D
3C
02
37
3E
36
3C
3C
3D
04
3B
02
01
01
3F
08
00
05
3F
38
01
07
3F
01
3A
03
04
3F
00
39
38
39
3A
37
04
04
3C
3E
3E
3C
3B
3F
00
3C
3D
3F
3E
38
3D
3D
37
03
3D
3B
3D
03
07
33
01
3B
00
33
02
3C
3C
3E
00
02
3D
3B
39
3E
3A
3B
02
35
03
39
3C
3F
3A
38
33
02
02
02
35
01
01
33
00
39
02
3B
03
01
01
37
3F
3C
01
32
37
38
3A
3D
02
35
07
37
3A
02
3E
36
37
03
04
00
3C
3C
00
31
3D
37
02
33
3E
02
00
31
02
3A
06
31
35
35
37
3E
3E
36
09
37
36
00
3A
39
39
00
00
00
01
3A
3A
39
38
3C
3E
34
38
02
01
33
05
3F
08
31
36
38
37
3F
3E
39
03
37
38
3F
35
37
02
3E
3E
03
02
3C
3F
3D
35
03
3D
35
39
02
00
33
01
01
06
3B
3E
37
3A
3E
3F
3B
3C
36
3A
38
3D
38
3F
3E
01
02
3C
3E
3F
02
35
05
02
3C
3E
3D
3F
38
3F
3B
3F
36
3F
3E
3A
3A
03
01
3D
35
3C
39
01
3F
37
3C
3D
3D
35
00
39
01
36
06
00
36
00
34
3E
3D
39
38
3D
38
01
3C
02
3B
3C
3E
3D
04
3D
05
39
3F
36
3C
3C
02
3B
3A
31
01
01
01
01
03
00
3A
01
3F
01
04
3E
3A
3D
3A
3D
3C
03
3D
00
02
3D
3B
3C
3A
35
04
00
3D
3B
05
3C
36
3F
37
3D
34
3F
38
3B
3F
00
04
01
37
39
3E
3C
3A
01
38
05
3A
3B
00
3D
32
34
02
03
07
34
04
3E
37
3D
35
00
3C
3E
00
02
2E
02
03
00
33
39
00
39
3B
00
37
0C
39
39
3F
02
32
36
01
06
06
3A
02
3B
36
3C
32
3C
34
3C
04
00
30
06
3D
05
33
36
3A
34
3C
3E
38
0C
37
37
3F
00
32
35
3C
03
04
02
3E
39
3C
3A
3B
39
33
3A
02
00
33
06
3E
06
35
36
3C
35
3C
3D
3A
08
39
3A
3B
3D
34
3D
39
3E
03
04
3B
38
3F
36
05
37
37
3D
02
3F
36
06
3F
05
3E
3D
38
3A
3A
3F
3B
00
3A
39
3B
3B
35
3B
38
02
02
3C
01
38
05
34
04
37
3C
01
3A
3E
31
04
3F
3F
3C
08
3C
3C
39
01
02
00
3A
39
3A
3E
3A
35
39
3E
3D
38
02
39
04
36
04
3B
3B
00
37
3B
3D
3D
36
3D
39
06
3E
02
3A
3E
01
3D
06
3C
02
35
03
36
3F
3B
03
39
39
36
02
01
02
39
3F
3F
3B
3F
03
3F
01
3D
3D
3B
3E
3D
3C
03
3D
3F
01
3B
3C
3A
38
38
02
3B
3F
3D
08
39
3C
01
32
3D
37
00
36
3D
3C
02
04
3C
3A
39
04
3B
3B
01
3E
03
3A
33
00
3C
33
39
02
02
03
35
09
3B
39
3A
37
3D
3A
3F
3C
3F
2A
06
10
3B
36
36
04
35
3C
01
00
09
3B
37
3E
01
36
3B
01
05
01
3C
07
3E
35
3D
39
3B
36
3D
3E
3C
32
05
08
3E
36
35
04
33
3C
01
01
0B
3A
38
3B
05
38
3A
39
3B
03
07
01
3E
37
3E
3B
36
35
3E
3B
3D
38
05
02
02
39
38
02
39
3C
00
3F
08
3D
36
3B
00
37
39
3A
3A
03
05
00
3A
3A
39
02
35
39
02
3A
3C
37
07
3F
05
00
00
3D
3B
38
00
3D
00
3A
35
3B
3E
35
38
3A
3E
3E
3D
03
3F
04
39
02
3A
3B
01
37
3C
2E
05
3F
01
3E
0B
39
3B
38
01
02
3D
3B
36
38
3D
3B
38
3B
3E
3C
3C
02
3E
05
38
00
3D
3C
01
36
3B
39
3F
39
3E
01
0B
3D
3F
3A
02
00
3E
03
3A
3F
37
02
3A
3E
3A
01
3C
36
39
05
03
02
3A
3B
3E
3B
3F
03
00
3E
3D
01
3D
05
3A
3C
02
3F
3C
01
34
3D
3D
37
3F
00
3B
3E
3D
07
3A
3C
3C
39
3E
3D
02
38
01
3A
02
05
3B
3E
3B
09
38
3E
01
3E
3F
3D
2E
02
3A
32
3E
02
3C
3E
38
05
3C
3B
39
01
3C
3A
03
3B
3D
2C
04
0F
3B
3B
3B
03
39
3E
04
3F
03
3E
30
00
3F
35
3F
3E
3C
3D
39
06
01
34
3A
01
3B
3A
03
3A
3B
30
04
0B
3C
3A
3B
3C
3B
3C
03
01
06
3F
30
3D
04
38
3E
3C
39
3E
3E
04
3F
34
3F
3E
38
38
05
38
38
37
03
07
02
3D
3B
3C
3D
3A
01
3F
05
3D
2D
3F
00
36
3A
3D
3A
01
3F
03
3E
35
3E
3D
3A
3B
03
37
3B
32
04
04
04
00
02
3A
3D
39
02
3E
00
3C
31
3C
3D
34
38
3C
3F
01
39
05
3D
3C
3D
00
3D
01
01
35
3C
2D
02
3F
3F
01
04
34
39
3B
01
00
3A
3C
37
39
3C
3D
3C
3D
3D
3B
3E
3F
3D
02
3E
3E
3F
3E
3F
37
3C
36
3E
3D
3E
04
08
3F
3B
39
03
3F
3F
3C
3C
00
39
02
3C
3D
3B
02
3F
38
3C
3F
3C
00
3D
02
3F
3D
3F
00
00
3C
3D
3C
3E
03
38
3C
00
3C
3D
00
33
3F
3C
34
00
3E
3B
3E
3A
04
3A
01
3D
3F
01
3F
3E
36
03
38
01
00
3A
39
3C
01
36
3B
3F
3D
3A
3A
31
06
3B
33
00
3D
3B
3D
36
06
3A
3D
3C
00
3A
3C
00
3A
3E
31
00
05
3C
39
3D
3F
3C
3E
03
00
3E
3F
34
00
3E
33
3F
3A
3B
3A
34
05
3E
3D
3A
01
3A
38
02
3A
3A
32
00
05
01
3B
3C
3A
3D
3C
02
3F
3B
01
32
00
3E
35
3E
3B
39
38
34
03
3F
3E
3F
3F
3B
37
03
3B
36
37
00
03
02
3B
3C
3A
3E
3C
01
3C
01
00
31
00
3B
34
3C
3B
38
38
35
02
3E
01
3E
3E
3B
3C
03
3B
3A
35
00
3F
00
3D
02
3A
00
3B
02
3E
02
3D
35
3C
3D
34
3D
3A
3D
35
37
01
3C
3E
3F
00
3C
00
3E
36
3E
2F
3F
3F
3F
3E
03
3C
37
3E
04
3C
01
3D
37
3A
3D
3D
3D
3C
39
39
3B
00
3E
3D
3F
00
3B
02
3B
3B
3C
37
3F
3D
3B
3C
02
3E
33
37
06
3D
3C
3A
3E
00
3B
04
3D
01
38
3B
3F
3D
3D
36
3D
3C
3D
3F
3F
3F
3C
39
01
3E
35
3D
3C
01
3C
3E
3F
02
3B
01
38
3F
3C
36
3F
35
3C
3E
37
3E
00
3E
3B
3B
01
3A
3E
38
01
3E
02
3D
39
3D
3B
3B
37
36
00
3C
39
01
35
03
3D
36
3A
35
3C
37
3A
02
3D
01
3A
3B
3D
00
3F
3E
3D
3B
3E
00
3B
3A
3C
39
3C
3C
01
38
39
01
37
3E
39
37
3B
34
3C
39
35
03
3D
3D
39
39
39
39
3F
3C
3F
39
3E
3F
3B
39
3A
36
02
3A
3F
37
3A
02
37
3E
3B
38
3C
2D
39
3A
34
3E
3D
01
3C
37
3C
35
3D
3E
3F
3B
3C
3F
39
3B
3C
35
05
39
00
39
37
03
38
3E
38
37
39
2D
3A
3F
35
3B
3D
00
3E
3A
3D
38
3C
3F
3D
3B
3E
3D
00
3C
00
2F
3A
34
04
3B
39
01
37
3A
3B
39
38
2C
3F
01
37
01
00
02
01
01
3E
3D
35
3E
3C
3A
3D
3C
3B
39
3C
37
00
35
3E
01
37
3C
3B
39
39
3E
3B
30
00
38
3C
3F
04
3F
03
01
3D
38
3D
3C
3F
3D
03
02
3D
35
03
3E
3D
35
3A
00
3B
3D
3F
3E
36
3F
3D
37
01
3C
3B
3D
3E
3A
3F
3F
01
3E
09
01
3B
34
00
01
3E
3C
36
37
3B
3F
3F
03
36
3F
00
03
37
3A
3E
3E
3B
01
01
04
04
05
02
02
3D
02
04
3D
02
3F
02
08
3C
37
39
3B
34
01
3E
02
3A
02
3B
3D
37
34
3B
3F
3C
3D
03
3B
3F
3E
3E
01
3E
3C
3E
00
00
3D
03
04
02
3A
38
3C
34
3C
3D
3F
3C
05
3B
3C
34
37
3F
04
3D
00
04
3E
01
3F
3C
39
3D
3D
3E
00
00
37
02
02
00
3E
39
3B
39
3F
3A
3F
3A
06
3A
3A
35
36
02
00
3E
3A
04
39
00
3F
3A
39
3E
3B
3F
00
3F
36
01
04
01
3D
3A
3C
3F
3E
3B
3D
38
05
3D
3D
32
37
00
00
01
3B
01
3D
01
3F
39
3D
3D
3D
00
3E
3D
37
02
06
3B
3C
39
3A
03
01
3C
01
35
03
3E
01
34
38
37
00
02
36
02
3B
02
03
3E
01
3C
3D
00
02
3C
3C
02
02
33
3A
35
06
00
00
3C
03
3A
3F
3F
39
3A
3A
3D
0A
02
37
02
3D
3E
3D
00
3F
3B
3F
04
00
3E
01
02
07
3F
2E
02
3F
06
3D
00
05
37
02
03
39
34
05
04
05
03
02
05
04
05
3A
00
07
02
08
04
01
01
04
3B
05
07
06
34
3E
3F
3D
3A
02
3A
02
02
3B
05
04
3A
01
3C
3F
3E
02
3A
3E
3C
3C
38
01
38
37
3F
3C
3C
3B
06
00
38
3E
05
04
3B
00
3C
3C
3E
3C
04
3D
39
01
01
3F
01
04
01
07
03
3B
38
00
39
01
3E
3B
00
39
06
3E
3E
3D
05
05
39
06
3B
3F
36
3F
01
3D
36
3F
3F
3A
3F
04
3F
07
06
3B
3A
3E
3B
3D
3D
38
00
3D
06
3C
02
3D
04
06
3C
07
39
3E
33
3E
02
3F
37
03
3C
39
3D
03
00
07
05
00
39
3B
3B
3D
3D
36
3F
38
07
3E
06
3E
03
06
3F
07
3D
3D
31
3E
04
00
3B
3F
01
3E
3D
01
02
05
03
00
39
00
3B
3D
3D
35
3F
38
07
3D
02
3D
3F
08
3A
03
3B
3C
35
3D
04
01
3D
3B
03
3F
3D
3C
00
3E
00
3C
3E
3F
3B
38
3E
3A
3E
36
3D
02
01
3D
3C
0A
3C
3E
3E
36
3D
3E
05
02
3D
3B
3A
3D
00
3A
3D
3A
3E
3A
3A
3F
3D
3B
3F
3C
3F
3F
3C
3D
3B
04
00
3E
3B
00
3B
3A
3A
35
3D
00
3E
3F
3E
04
02
3B
01
39
3E
36
3C
04
3D
01
01
38
00
03
00
06
39
3D
00
3F
3D
04
3F
3F
3F
3F
01
3C
3B
3C
02
35
04
3A
3B
38
3E
3C
38
3D
3A
38
00
38
03
3B
3F
02
03
3A
03
03
3C
3D
3B
3F
35
3D
3A
00
3E
3A
3B
39
3E
39
3C
00
3F
3B
05
36
39
3F
3D
3C
3F
38
02
00
03
39
03
04
3D
03
3C
3A
33
3E
32
3F
04
37
3A
37
3C
3C
3A
01
03
3A
01
37
3F
3E
3B
36
39
35
03
3C
05
3D
04
04
3D
07
3A
39
30
3F
39
3D
01
3B
34
00
37
3F
3B
02
06
3C
3B
34
3E
3C
3A
34
37
33
02
3F
05
3F
02
04
03
04
00
3C
32
3E
38
3B
3F
39
35
04
35
3E
38
00
05
3D
39
35
3F
3D
3B
35
39
34
04
00
00
3F
3E
06
3D
3F
00
3E
31
3D
3C
3F
00
36
36
07
30
3D
39
3E
04
3F
3D
3D
3D
3A
3B
3A
3D
36
3F
04
38
01
00
09
38
3D
01
38
38
03
3F
01
01
39
34
02
03
3F
3C
3D
3D
3E
07
3E
3A
3D
3B
3C
01
3D
00
39
3C
00
03
04
37
3F
00
36
3F
3C
3A
00
3F
3B
38
02
02
00
3F
3E
3F
3C
00
3F
3D
3B
3F
38
00
37
3F
06
3D
3C
3F
3F
00
00
3E
00
3C
3E
01
3D
3C
3E
3F
36
07
37
00
39
00
39
3D
3E
3D
38
01
3C
01
3D
3E
3F
04
39
02
05
01
3B
39
00
37
37
38
3B
04
39
3A
3A
03
34
00
3D
00
3A
0C
38
3D
3C
3C
3E
39
38
00
3D
04
3A
04
05
3F
01
37
3A
35
39
38
3D
05
36
37
38
00
34
3F
3F
3F
3A
07
36
3E
3A
3E
38
34
36
01
3A
06
3D
03
04
3F
02
38
35
36
36
3B
3C
03
36
34
3F
36
38
3E
3F
06
3A
03
33
3F
37
3C
39
35
33
01
3B
06
02
00
04
02
00
3E
38
35
39
38
3B
00
39
35
03
35
00
3D
02
08
39
03
36
3D
38
3B
37
36
36
04
3E
3F
03
3E
07
3E
3C
3E
3B
30
3E
3E
3C
03
39
35
01
35
3D
3B
01
01
3E
06
39
3B
37
3C
38
3C
35
3D
04
36
05
3F
0B
00
3D
3C
3D
38
04
3D
3E
03
3A
2F
02
04
3D
3D
3E
02
3D
0B
3B
3B
3C
00
38
01
3D
3F
37
38
3E
05
06
3D
3D
3E
37
3E
3D
3B
3F
04
02
39
3D
03
01
01
3F
01
3C
05
3D
3F
3E
01
2F
3F
3F
3C
00
3E
39
3F
00
3E
01
3A
02
3B
3D
05
3D
3C
00
01
36
05
32
3D
3B
02
3A
3C
00
00
39
04
3A
3E
3A
3A
3C
00
37
01
07
3F
3F
3B
3F
36
39
01
3D
06
3D
3D
39
06
34
00
39
3E
3A
0A
38
3E
3B
3B
3D
37
35
3E
3D
01
34
02
06
3F
01
39
3E
37
34
3F
3E
07
38
39
3B
08
34
01
3C
3C
39
0A
34
3D
38
3E
3A
35
36
3F
3B
03
3D
3F
04
3E
00
3A
3E
33
37
01
3C
04
37
3B
3F
04
37
00
3D
00
3B
09
34
3C
37
3B
3A
32
38
00
3D
01
02
37
02
00
3D
39
3D
33
3A
02
3C
02
39
39
00
04
3C
3E
01
3F
3A
0A
36
39
38
3C
38
36
39
03
3E
3E
06
38
09
3E
3D
3A
3C
33
3D
02
3C
04
3D
3A
00
3F
3E
3D
00
3B
3F
0C
3B
39
38
3D
39
3B
34
3F
00
34
05
3D
0F
03
3C
3B
3C
37
05
00
3E
04
3C
33
01
05
3A
3E
00
00
3E
0D
3B
3B
3A
01
38
01
3E
00
37
35
3E
05
0A
3E
3C
3F
38
3D
3F
3C
01
05
02
34
3F
01
01
3E
00
3D
3B
03
3D
3D
3E
03
35
01
3D
3B
3E
3F
38
3F
03
3F
00
39
00
3A
3D
05
3C
3D
3F
00
39
04
34
01
3C
3F
3A
3D
3D
3E
36
01
3F
3B
3B
3B
3E
01
33
3F
07
3F
3F
37
3F
35
3A
03
3C
03
3D
3B
3D
05
36
3F
3C
3C
37
0B
3A
3F
3D
3E
3F
38
39
3D
3B
01
35
01
04
00
3E
39
3E
37
38
07
3A
03
3B
3B
00
09
32
3E
3D
39
37
0B
36
3E
3B
3D
3C
36
3A
3D
3A
3F
3C
3D
01
00
3E
3A
01
30
39
06
39
01
3A
3C
3E
08
36
3D
3C
35
39
09
37
3E
39
3C
3B
35
3A
3E
3C
00
3E
39
01
00
3E
3A
01
34
3C
06
38
3F
3A
3C
3C
06
3E
3E
3B
32
3D
0B
38
39
3A
3C
3B
39
3C
01
00
3D
03
39
05
3F
3D
39
3D
33
3F
04
3A
01
3B
3E
3B
04
3F
3D
3D
38
00
0D
3B
3A
39
00
36
39
37
01
01
3C
01
3B
0C
02
3C
39
3C
32
03
03
3E
01
3B
3A
01
04
3D
3D
00
3C
3F
0E
3A
3B
36
01
3B
3E
3E
3E
39
38
3F
08
0A
3C
3C
3C
3E
3D
3C
3F
00
02
03
2E
00
00
3F
3D
02
3F
37
03
3B
3C
3D
00
3F
02
3D
3B
3B
00
3C
01
02
3E
3F
36
00
38
3F
04
39
36
05
02
3C
04
37
3E
3F
3B
36
3A
39
00
37
01
01
3A
3B
3C
3B
02
35
3C
01
3F
3C
39
3F
39
3B
06
3A
3C
04
34
3D
05
37
3E
04
01
30
0A
3A
3F
3E
3F
00
3A
3C
3C
39
01
39
3C
00
3F
3B
3B
3F
35
3A
07
3B
3F
00
38
3E
08
35
3E
3B
39
32
0A
38
3E
01
00
3D
3A
3B
00
3B
00
3F
33
3E
02
3A
3D
03
34
3C
08
39
3D
3F
39
3D
0B
39
3D
3A
32
3C
08
35
3E
3D
3E
3D
39
3D
02
3B
00
3A
33
3F
00
3B
3A
02
32
3C
07
37
3F
3F
3A
37
08
00
01
3D
30
3F
0A
3A
3B
38
3F
00
39
3C
01
3E
3E
01
36
01
00
38
36
3E
36
00
02
37
3E
3F
3D
3E
03
3E
3D
01
36
00
0B
3F
3B
36
02
3C
39
3E
3E
3E
3C
3D
39
02
02
36
38
3D
37
01
05
3C
3F
00
39
04
03
3F
3D
01
39
3C
09
39
3F
2F
02
00
3B
3F
3F
3E
39
00
09
04
3C
3A
3D
00
3D
3A
03
00
01
02
37
01
02
3F
3E
02
02
37
00
3E
3E
3E
00
05
02
3C
38
39
00
02
01
3B
3F
00
38
00
3C
03
02
3C
33
3E
00
3A
06
37
02
3E
3C
36
3C
2D
3C
3C
01
02
3D
3E
38
3F
01
3F
3B
3C
01
3F
39
02
39
00
06
3A
35
01
39
36
03
3A
01
02
02
39
06
36
3F
00
3E
03
3B
01
3A
01
00
03
3D
3C
00
01
3B
02
37
3E
05
3B
39
3F
3C
3A
08
37
3F
3B
39
38
09
36
3D
02
00
05
3C
3D
3B
04
3F
01
37
3D
00
01
00
05
38
3E
07
3B
3A
3F
3A
3B
08
3C
3F
38
39
3E
01
34
01
00
3D
03
3B
3D
3E
00
02
3C
35
3D
3F
3F
3D
02
39
00
06
38
39
3B
3B
37
08
3E
3F
3D
37
3E
03
38
3D
3E
00
01
3A
3D
3D
3E
3E
3B
33
3E
3D
3D
3D
00
3B
00
03
38
3C
3D
3B
35
04
3C
01
00
3C
02
08
3B
3B
38
3F
03
39
3E
3F
3A
34
00
00
3C
02
3D
3A
00
3D
02
05
3D
3E
3F
3C
3A
02
3D
00
3B
36
00
09
2F
3B
35
00
00
3C
03
3A
3C
3B
01
00
3E
3E
3E
3B
03
3B
03
08
00
02
06
01
3C
02
3D
02
39
00
01
01
3B
31
3A
3F
03
01
00
39
30
3C
3C
02
3A
0D
38
3F
02
02
00
06
3A
2E
00
03
34
03
3E
02
08
3F
3A
01
3A
3A
3F
01
3E
3E
03
3B
3A
01
3C
3E
3A
3F
3F
3C
3F
01
01
08
39
33
3D
39
35
3C
01
3E
03
04
37
01
3D
3A
03
01
03
3D
3E
3C
36
3D
3E
3F
3C
3E
00
3E
3F
3D
3D
09
3E
37
3E
3C
3D
3F
3E
00
3C
3F
37
08
3A
38
01
01
06
00
3D
3B
37
3F
01
3C
3B
00
3E
00
02
3C
3E
08
3F
36
3E
3D
00
00
3F
3F
39
3E
3B
04
3B
3A
03
01
04
04
3D
3C
3D
3F
3C
3F
3C
00
00
03
01
3E
00
07
3B
38
3A
00
3D
3F
01
02
3B
3D
3A
02
3E
3A
00
02
04
3F
3E
3C
3B
3C
3D
39
3F
01
00
3E
00
00
03
04
3A
33
3B
00
04
00
00
3E
03
3D
04
06
3C
35
01
02
3F
3D
00
3C
01
2F
3F
3C
39
05
3E
39
03
01
05
04
02
36
00
03
34
3D
02
01
04
32
3D
01
3B
39
02
04
3F
3C
3E
39
2B
37
38
3E
3B
3B
3F
3C
00
03
05
09
3F
39
3F
01
3D
38
02
03
04
3B
3E
3F
3E
33
3C
3D
3B
05
3E
3D
01
3B
33
3D
36
0C
3E
3F
30
37
02
00
37
01
39
3E
01
3B
3C
00
3E
01
3D
04
05
3C
3B
3E
3D
39
07
3D
00
3B
37
3C
39
3E
03
01
30
3A
02
3B
00
00
39
3A
04
3F
39
03
00
3E
33
3A
01
36
3F
01
3A
37
05
3E
06
35
38
38
37
01
03
00
31
3C
3C
3D
3F
01
3A
3E
3F
3E
3D
3F
05
01
31
01
3E
36
01
04
39
38
04
01
04
33
3A
36
38
3D
01
3E
33
02
3F
3B
02
02
3C
02
3F
3F
3D
3F
04
01
34
3E
3E
3B
02
01
3A
38
01
00
05
38
3C
37
36
3D
3F
3D
30
3D
3F
3A
3C
00
3D
3F
01
3B
00
3F
01
3F
31
01
3C
3B
3D
03
39
3A
01
01
02
36
3F
3B
33
01
00
3E
2F
3E
01
3C
3C
02
3C
3F
3D
3F
3F
3C
00
3F
32
39
01
38
38
3B
36
3A
3F
07
3F
2E
3C
38
3A
35
3F
39
32
36
02
3A
02
3C
3F
38
02
01
04
3C
00
3B
39
38
3B
01
00
3C
3E
3E
09
3C
09
3C
05
38
03
39
3E
3F
35
07
30
30
39
3D
05
3E
04
36
02
06
38
3C
38
04
35
0E
01
32
3D
3B
3B
01
3F
36
37
3F
33
3A
02
3E
3C
38
04
39
3C
03
36
3C
3D
00
3D
3E
05
02
3F
3F
3B
3B
00
3B
3F
3F
04
02
02
33
3A
3F
35
3D
01
00
34
38
39
3D
3B
00
39
06
00
3E
3C
3C
3F
00
38
37
01
38
3E
0B
00
01
03
3D
01
32
3E
3E
36
3C
00
3E
32
3C
32
01
3F
3D
3C
00
3F
37
3A
01
01
01
3A
38
3F
38
3F
0B
3D
3B
00
3F
01
35
3D
3B
36
3A
00
39
30
3F
38
05
05
3C
3D
01
3E
05
38
04
02
02
39
3B
3E
3C
01
0D
39
3C
00
00
01
34
3A
38
34
3B
3E
3D
32
3E
36
00
03
3E
3F
3F
00
03
3D
00
02
3E
37
3D
02
3B
3E
0A
38
3C
01
3F
00
38
37
3A
36
3A
01
3B
30
3E
38
3C
3D
3D
3E
3D
38
00
3F
3B
02
3C
37
3A
00
3A
3D
04
3A
02
04
00
01
3A
39
38
2E
38
3F
3C
3A
37
3F
3A
3D
3C
3F
01
3C
3E
03
3C
03
3E
3D
37
39
3A
3C
3C
3B
09
08
3A
08
3E
04
31
01
3D
01
03
00
02
30
3B
02
3B
02
05
34
3D
04
0C
04
01
3E
3D
2E
3F
01
3C
3B
3F
3E
00
05
36
03
00
34
01
03
3E
00
3A
01
3F
3C
3D
36
01
00
3A
3F
05
01
04
02
00
34
39
3E
3E
3C
3E
04
00
3D
36
3E
01
35
3D
3F
01
39
37
3C
3D
3E
3A
3B
05
08
3A
3C
3E
01
03
3E
3C
3A
38
3F
0E
37
3A
02
3D
01
35
00
3D
35
3D
3D
3D
34
3B
39
3C
01
38
3E
00
05
3F
3B
02
01
03
3C
39
3F
37
3E
0C
3C
3A
01
01
01
37
3F
3C
38
3A
02
3D
33
01
38
3D
05
39
01
05
3F
08
39
00
00
3F
39
3F
01
38
3E
0E
00
38
02
03
3F
38
3A
3B
33
3B
00
3F
34
3F
38
37
05
3B
03
07
03
05
3D
00
01
3E
38
3C
3F
38
3E
0C
3C
36
06
04
00
37
39
3D
33
3C
3F
3B
35
3D
37
3B
03
3D
3F
04
3C
04
3E
03
3F
02
3B
3D
3B
37
3E
0B
3A
38
06
00
02
3A
39
3C
30
2A
3D
3B
38
38
39
3E
3D
3C
01
04
3F
3B
3D
06
3F
3D
3F
38
35
38
3E
00
3D
06
05
3C
02
38
01
30
02
35
02
02
07
07
31
3F
3C
3A
01
03
39
3E
01
0A
00
05
09
3D
32
3E
01
37
38
3F
02
3D
05
38
10
02
35
3D
03
06
00
3C
3E
39
01
3E
37
02
00
39
02
07
03
06
3E
3C
37
39
3E
3F
39
3B
05
3D
3D
3B
07
00
35
00
00
3F
3B
3B
3A
39
3C
37
3C
02
0C
3B
3C
3E
08
07
3D
37
39
37
3D
0F
30
39
00
3A
3D
39
02
3D
36
01
03
37
37
3E
3A
39
01
38
02
04
09
00
3D
3F
07
04
00
35
3D
3A
3C
0D
30
38
00
3F
3F
3B
3F
36
35
3E
05
39
33
04
3B
36
02
37
05
06
03
04
3D
3F
3F
3C
3C
3C
3E
36
3E
0E
34
3A
05
00
3E
3D
3E
39
31
3C
06
3E
35
00
38
33
04
38
06
0A
00
03
3F
01
04
3D
3B
3F
3F
36
00
0F
35
38
07
05
3E
3D
3B
3E
34
39
00
3C
39
3C
36
37
02
3A
02
05
01
04
3D
03
01
01
3C
37
3D
3B
00
0C
35
37
05
3D
03
06
3E
3C
30
2F
3E
3C
3E
3B
39
02
3D
3C
3F
06
3F
3A
02
09
3F
00
02
33
37
3B
01
3F
3D
05
03
3D
02
3D
00
31
00
31
01
3D
0A
02
37
00
00
3A
3E
02
38
00
3D
08
00
0A
08
3B
39
3C
02
35
31
3F
07
3E
01
36
12
00
38
3C
03
09
00
3A
3A
39
00
3E
39
03
02
3B
03
05
04
03
3B
00
3A
3E
3F
3E
36
3C
07
3B
3B
3D
0A
3E
36
3F
3E
3C
3A
3A
39
3C
00
35
3F
04
0A
3E
3F
3E
0A
06
3F
38
3B
3B
3E
0D
2D
38
00
39
3C
3D
08
3C
36
01
02
38
3B
00
38
36
02
38
07
07
0A
3C
00
01
08
04
00
38
3C
3D
3C
0D
31
3C
05
3D
00
3C
03
3A
30
01
05
38
36
07
38
35
03
38
06
09
04
00
3E
04
04
02
3D
3C
3F
3C
3C
0D
32
3C
05
3D
3D
3F
02
3F
30
3D
05
3D
36
3E
37
35
05
38
07
0C
02
04
3D
03
03
3F
3F
3B
3F
3C
3F
0D
30
3B
07
02
39
3E
3B
00
35
39
01
3B
3B
3C
38
3A
02
3A
05
05
3E
00
3D
05
03
00
00
3D
3B
3C
04
0C
31
38
04
3C
00
01
3C
38
33
38
3F
38
3F
37
3D
3F
3F
3C
00
04
3D
36
01
0A
03
3D
02
33
3A
3E
04
3D
3A
03
01
01
3C
3D
00
2F
3E
39
3C
3E
09
01
3E
01
3F
3B
3C
00
34
3F
3F
05
3D
08
00
39
3F
3B
06
39
31
3E
04
3A
01
39
0A
3E
38
3C
04
39
00
34
37
38
00
01
37
3A
01
3C
02
3F
3F
01
3D
02
3A
39
04
3D
38
3D
08
37
00
00
0A
38
36
00
00
3E
3D
33
37
3C
3E
38
39
05
07
3A
3C
00
3F
3E
04
3D
39
3E
01
0B
33
3B
00
36
3D
00
0A
37
37
02
01
3A
3B
39
34
3A
01
37
37
07
07
3D
02
02
06
02
00
3B
3C
3C
3E
0C
37
3C
04
37
01
3F
02
3B
34
3E
0A
3B
38
00
33
37
01
37
38
0C
07
3F
01
00
06
02
3E
3B
3F
3F
3D
08
37
3F
05
39
3F
00
05
3A
35
3B
07
38
39
3B
36
38
04
34
39
0B
04
00
3D
01
05
00
02
3D
00
3D
02
0C
35
3E
06
3E
3F
01
01
3B
36
39
02
31
3B
37
32
3C
03
35
39
02
3C
3B
00
00
04
3F
00
3B
3B
3D
04
0A
39
3F
02
38
01
01
05
33
33
36
03
33
04
39
3B
01
00
3A
36
01
36
32
00
07
3F
3B
05
36
38
02
02
3D
3D
04
3B
01
3E
3E
3F
2A
3C
3C
3F
3E
0A
3E
03
3D
02
3E
3F
3D
3C
00
3F
02
3C
03
01
00
3D
02
0A
37
39
3D
02
3C
02
00
02
03
39
3A
36
02
3F
3B
36
3A
3E
01
34
37
00
39
04
3B
07
3B
04
3D
3D
3E
05
3D
3D
3C
03
37
3F
3E
02
3C
3A
3F
3A
03
3C
38
36
3A
3C
36
2D
01
05
3C
3C
00
02
3E
03
3B
35
3F
3F
06
39
3C
01
3A
3A
3E
03
36
38
01
36
01
3D
3B
34
3A
3D
33
2A
05
07
3D
02
02
06
3D
3F
34
37
3D
3E
04
38
37
02
38
37
3E
02
3B
38
3F
3C
01
3C
3A
34
38
3E
38
32
06
06
00
3B
02
02
3E
00
37
3C
3B
3D
02
38
3B
03
3B
3F
02
06
3B
38
3E
3B
3D
3C
3A
36
37
01
34
38
04
03
3F
39
04
03
02
02
3D
3C
3B
3D
04
3A
01
04
3A
3F
00
07
00
34
3B
3D
3A
3D
39
34
3D
04
37
3A
3E
38
39
3A
03
03
02
01
32
38
3B
3F
03
3B
3E
01
3D
08
03
05
39
37
31
39
3B
01
3C
3B
01
3F
3E
31
3E
38
36
3E
06
3E
3E
04
2F
02
37
03
00
3F
01
3A
02
3D
00
38
33
00
3E
3D
01
01
3F
06
3D
3F
3E
39
37
3C
39
00
3A
39
06
3D
3B
02
3A
07
3D
3D
3F
00
3D
03
02
07
3A
08
33
05
3F
38
39
38
37
3B
02
30
3C
37
01
3F
3C
37
3A
0A
03
01
00
3B
3C
00
39
38
3F
3B
39
04
3C
06
03
00
01
3B
3F
36
38
38
32
05
3B
06
3C
37
3C
3F
3F
09
3E
35
3E
00
3A
3A
02
38
3E
3C
3C
03
39
02
08
3D
3E
3C
00
35
2F
3A
2E
05
01
04
3B
34
01
02
3E
01
3B
33
04
3C
33
3D
00
3A
3F
3C
3B
02
32
02
02
01
01
3E
01
39
2A
3C
28
06
3F
0A
3F
36
3B
01
01
09
3A
34
01
3E
38
3C
3E
3E
3F
3B
03
00
34
02
02
3D
00
3E
3F
39
2B
3D
29
06
3B
02
3D
36
38
3F
05
08
00
30
05
3F
36
3D
3E
3E
3F
3A
05
07
3C
04
03
3E
3C
3C
00
35
31
01
2A
00
38
3A
3A
32
3B
3A
3F
00
36
01
35
3D
39
3D
00
3E
03
37
04
3C
02
06
09
0B
3B
3A
3F
3F
3A
3C
29
01
2E
3B
3D
37
3B
3B
3A
04
3B
04
35
3B
03
3F
00
3C
07
32
00
02
3A
32
03
03
3F
38
3A
05
27
3F
35
02
3C
30
02
3E
38
37
3E
39
3F
06
36
00
3A
31
3E
37
3E
03
34
0B
03
39
01
37
38
3D
3D
01
3A
3D
3D
3D
01
3F
3B
3F
07
3E
00
39
36
3A
3B
3B
3A
00
3D
02
00
3E
35
0B
3E
33
3C
3A
3F
37
3D
3F
3D
3E
02
3B
3C
01
00
3C
01
3D
3F
3A
3F
3C
3E
3C
02
01
3C
01
02
3E
35
0B
3D
33
3B
3C
3C
35
02
3C
00
3F
05
39
3C
02
05
3A
3D
3D
00
3A
01
01
01
3D
00
3E
3D
05
02
3E
34
0B
3E
32
3A
39
3C
34
05
3B
01
3F
05
3C
00
3F
3F
3B
3C
3F
3F
3E
00
3F
3C
3D
00
3E
3F
05
02
3E
3D
0B
3F
30
39
3A
3E
39
07
3D
3F
3F
01
3D
01
3D
3F
3C
02
3F
3F
3E
01
00
38
3D
00
3F
3D
04
04
01
3D
09
3C
30
35
39
3E
39
02
01
3D
3E
3E
3B
3C
00
02
3F
04
3F
3C
3E
01
3F
37
3E
01
02
3C
02
3D
01
00
01
00
32
2D
38
3A
37
00
03
3B
3D
3A
3F
02
00
3F
3D
08
3E
3B
00
00
3F
3F
3C
39
01
3E
00
03
05
07
03
3D
39
37
3F
3B
0C
01
31
39
38
37
00
01
01
06
3B
3E
3F
3D
34
3B
3F
39
3C
00
39
3B
34
3F
01
36
02
3E
38
38
3D
3C
3E
3C
3B
3B
01
03
39
03
3E
3C
3F
3D
3A
3E
39
36
00
3C
37
3C
3F
3F
3E
3F
3C
3A
05
39
38
3A
39
39
38
02
35
05
00
05
38
00
03
3F
3E
3C
03
3D
39
3B
3A
3E
3D
3B
3D
3C
02
3E
00
3C
09
38
39
3A
39
37
39
07
35
07
01
07
37
01
05
02
3C
3D
04
3A
3D
3A
39
02
3F
00
3E
38
04
3F
02
3E
08
3B
3A
39
3B
38
36
05
34
04
3E
0A
37
03
03
00
3B
3E
04
3E
3E
3C
3A
01
02
3F
3E
37
08
3D
00
3E
09
3B
38
36
3B
39
38
04
33
05
3E
09
36
01
00
00
3A
3D
02
3C
3D
00
39
3F
01
00
00
39
04
3F
00
3D
07
3A
38
3B
3C
3A
3B
04
36
00
3D
06
37
3E
09
3F
37
02
02
3B
3E
3C
3C
3D
3E
3A
01
3E
05
3D
01
3B
05
3A
33
37
3D
39
00
3F
3E
3C
3D
06
3A
3C
02
01
37
00
06
39
00
38
06
3C
3E
3D
3F
00
3B
3F
03
00
01
02
3E
3A
04
3C
06
00
33
3A
3D
3F
3F
39
01
05
05
03
04
3A
3D
39
01
3A
3D
3B
3B
01
3B
3F
02
35
02
00
3A
3E
3B
35
3D
00
39
3E
02
03
39
02
3E
38
3F
3F
3D
00
3B
3F
00
3F
39
3D
3C
3D
3F
3F
3F
39
04
3F
3A
39
3A
38
39
04
35
04
06
01
3A
03
3E
01
3D
3C
04
3F
00
04
39
3F
3D
3B
3D
39
3F
01
3F
37
07
3C
3B
3D
3C
39
36
06
37
07
04
05
36
05
3F
01
3A
3D
05
00
3F
00
3B
3F
00
3C
3B
35
3F
3F
3F
39
05
39
3B
3A
3F
39
32
08
37
06
03
07
3A
00
02
05
3B
3E
03
3F
3E
01
3B
00
03
3A
37
34
05
3A
3F
3A
06
39
3B
3B
01
38
36
07
37
05
02
05
37
3C
02
01
3A
3D
3E
3D
3E
04
39
01
00
3F
38
36
02
3A
3D
39
05
3C
37
3C
3F
37
3C
04
3B
01
02
03
35
00
04
00
39
3F
3B
3C
3F
3E
3D
00
3D
3E
01
38
00
3B
3F
3C
04
3D
33
3D
01
3B
3F
02
39
3C
00
3E
3C
00
03
3D
35
3D
00
3C
3E
3D
04
3E
3F
3F
3D
3F
3A
3E
3F
3A
02
01
3F
3D
03
3E
3F
00
38
37
3D
3E
3E
36
3D
3E
3F
03
3E
36
3D
3E
07
3C
3D
3D
3B
02
35
3F
3E
37
3F
01
3C
01
3B
36
3D
04
07
3E
04
01
3A
3F
01
37
03
3B
3C
3C
05
01
01
3E
3C
3E
3C
3D
3F
3B
3F
38
02
01
3E
3F
39
39
34
05
00
03
06
3D
39
02
01
3B
3F
3C
04
3E
03
02
3C
00
3C
3C
3A
39
38
3A
01
39
02
03
3A
04
00
39
36
03
3C
03
06
3E
38
02
3D
3A
00
3D
07
00
00
00
3A
3F
00
3C
35
39
3C
3B
3D
3B
3F
00
39
01
04
3C
30
09
3F
05
05
02
38
00
01
3E
3D
00
00
01
3E
3A
3B
02
3E
3A
33
39
01
37
3D
3C
3E
01
38
00
04
3C
34
07
04
04
08
3F
3A
00
02
3C
3A
3F
3A
3F
3C
3E
3B
03
3D
3F
37
38
3E
38
3C
3C
3D
01
37
00
01
39
37
04
06
00
06
3D
3A
04
06
3E
38
3D
3E
3D
3E
39
3F
01
3D
3F
3E
39
3D
3D
3D
39
00
04
37
02
02
3D
3E
06
3D
3F
00
39
3E
3F
3F
3A
39
3D
02
00
00
3D
00
00
3F
3E
3E
3D
3C
3F
3C
3A
03
01
02
3C
04
00
02
3F
36
39
01
3C
3C
3A
3B
3E
01
02
3F
3A
00
3E
06
3F
00
3F
32
03
3A
3D
39
3C
3C
02
3B
00
3A
36
3C
07
0C
3D
07
00
38
00
00
3A
06
3E
01
3D
06
3E
3F
3E
3D
3F
3B
3E
39
36
02
3C
3D
02
39
02
3D
37
35
07
06
01
09
3D
38
02
02
38
02
3C
3E
3D
03
3E
3E
3E
3C
3C
38
3C
32
36
00
39
3B
05
39
04
02
35
35
09
06
01
08
3E
3A
01
3B
38
01
3C
04
3F
02
3C
3B
3F
3F
3C
35
3D
36
37
3B
3C
3C
09
39
03
02
36
2F
0A
05
02
08
01
37
01
3D
3C
3E
3E
3C
00
01
39
3B
00
00
3A
34
3C
39
38
3C
3F
3E
07
39
04
01
37
33
09
08
00
06
01
3C
05
00
3B
3B
3D
39
3E
3E
39
3D
01
3F
3B
37
3D
3C
39
3F
3D
3A
06
37
02
3F
35
37
09
08
3E
07
00
3C
08
00
3D
3A
3E
38
3F
3E
3A
3E
02
01
3E
3C
3B
3B
3D
3A
35
3D
04
36
39
00
3D
3A
07
01
3C
04
3C
3F
05
3E
3B
37
3F
3C
04
3F
3F
3C
3E
01
3D
39
3D
00
3C
38
3A
3F
3E
3F
02
02
01
3F
01
3E
35
01
3B
3D
3E
3B
3C
02
02
3F
01
03
01
01
3D
00
3F
2E
01
37
3C
37
3C
3D
04
3D
01
3E
07
37
07
0C
3E
07
3F
39
3E
04
3A
05
3C
03
00
09
3E
3B
3D
01
3F
37
3E
3C
31
06
3F
01
05
39
02
01
02
35
09
04
00
07
01
3A
08
07
34
04
3B
3C
3D
08
3B
3E
00
3C
3B
37
3F
36
34
3E
3B
3B
08
3B
3E
05
3E
31
06
05
3F
07
06
3E
06
06
38
01
3A
3C
3E
05
3C
3E
3F
3D
3B
36
01
38
34
3B
3D
3B
09
3D
02
07
3F
30
0A
07
00
06
08
3C
08
01
3C
3F
3D
3A
02
05
3C
3E
3E
3E
39
35
3F
39
37
39
00
3C
08
39
01
06
3C
32
0A
07
3F
08
0A
3B
09
01
3B
3B
3D
34
00
03
3C
3F
3B
01
39
38
01
3D
3A
3E
00
33
08
3A
00
06
00
37
08
08
3D
06
07
39
0B
3E
39
38
00
31
02
3F
3E
3E
3D
02
3C
3D
3D
3B
01
39
38
3B
07
37
3D
07
02
34
08
01
3D
03
01
38
08
04
39
39
3F
3D
08
3D
01
33
01
01
3B
3A
39
3E
3D
39
3D
3D
3A
00
3D
08
05
37
3F
3B
30
01
3D
38
01
3B
3C
3F
00
39
04
06
02
3E
06
04
3C
35
01
3B
3F
37
3F
3A
03
00
01
3B
07
3A
04
0C
3F
08
03
33
39
07
3B
04
3D
3F
3D
06
3B
3A
3C
03
01
3B
3E
3B
36
3B
01
00
02
3A
3B
3D
01
3C
07
05
03
08
06
36
05
05
36
06
3E
38
3C
05
36
39
3F
3B
3B
35
3D
3B
36
38
3D
3C
09
39
3C
02
02
37
06
06
02
08
0B
34
02
03
36
00
3B
3D
02
03
3A
3D
01
3B
3C
32
02
3A
38
2F
3E
3A
09
39
3D
03
02
35
09
08
02
07
11
37
09
01
3A
3A
3B
3B
01
3F
3D
3B
3B
3A
3A
32
03
3D
39
35
01
3F
08
38
01
06
02
3C
07
07
3F
07
11
33
0B
3D
3D
36
3D
39
3D
3F
3C
3A
3B
01
3A
35
03
00
3B
3B
3F
39
08
39
02
04
03
3F
05
06
3D
07
0F
3D
06
00
38
34
00
35
00
3F
3D
3C
3A
3F
3D
38
3F
3D
3A
3C
3A
3B
01
3C
3B
3E
06
3D
04
00
3C
02
09
3C
06
06
35
38
00
3A
07
3A
3E
39
3E
07
3D
3C
39
3C
3F
34
3D
3C
01
02
3C
3A
09
35
00
3B
34
3E
3D
3E
3E
31
3F
3F
05
3F
3E
3D
3A
31
04
3D
00
00
3F
3E
02
39
3E
3C
00
02
3E
37
08
3F
3D
02
02
04
00
0C
39
06
3C
3D
3D
3D
39
3B
3F
38
3E
3D
02
01
01
01
3C
00
3C
3D
00
3A
3C
3C
3E
3C
3F
08
00
0B
02
3D
3F
3E
38
3A
3E
35
3B
00
36
3E
00
3D
37
04
3F
00
3A
0B
3A
3B
34
3F
3C
3B
00
39
02
07
01
07
08
3D
00
00
38
36
3B
3D
02
00
37
00
3F
3C
39
05
00
3D
3F
05
3B
3C
36
02
3D
3D
00
38
01
0B
07
08
0D
01
00
36
36
3E
3A
3F
00
37
38
00
3C
3B
3A
00
00
3F
3F
04
3E
3E
3E
3F
00
3F
03
3B
00
08
0A
0C
11
02
03
37
3A
00
3C
3B
3F
3C
3D
3D
3B
3C
38
3F
01
00
3F
3C
00
00
08
39
01
3E
06
3E
3F
03
01
04
10
3F
04
34
3D
39
3E
3A
06
39
38
00
36
3A
3C
01
3D
3E
00
32
00
3E
3C
3C
38
37
0A
3E
3E
01
3D
02
3D
3B
05
3B
3F
30
01
3D
04
3C
37
38
3A
3C
04
3E
3F
3B
3C
27
3B
3D
39
37
04
39
11
3F
3A
39
03
37
38
09
37
38
3F
3B
3F
3C
00
3D
06
32
3A
02
3A
01
3F
3F

